{
  "version": "1.0",
  "truncation": null,
  "padding": null,
  "added_tokens": [
    {
      "id": 0,
      "content": "[UNK]",
      "single_word": false,
      "lstrip": false,
      "rstrip": false,
      "normalized": false,
      "special": true
    },
    {
      "id": 1,
      "content": "<s>",
      "single_word": false,
      "lstrip": false,
      "rstrip": false,
      "normalized": false,
      "special": true
    },
    {
      "id": 2,
      "content": "</s>",
      "single_word": false,
      "lstrip": false,
      "rstrip": false,
      "normalized": false,
      "special": true
    }
  ],
  "normalizer": null,
  "pre_tokenizer": {
    "type": "Whitespace"
  },
  "post_processor": null,
  "decoder": null,
  "model": {
    "type": "BPE",
    "dropout": null,
    "unk_token": "[UNK]",
    "continuing_subword_prefix": null,
    "end_of_word_suffix": null,
    "fuse_unk": false,
    "byte_fallback": false,
    "ignore_merges": false,
    "vocab": {
      "[UNK]": 0,
      "<s>": 1,
      "</s>": 2,
      "!": 3,
      "\"": 4,
      "&": 5,
      "'": 6,
      "(": 7,
      ")": 8,
      ",": 9,
      "-": 10,
      ".": 11,
      "/": 12,
      "0": 13,
      "1": 14,
      "2": 15,
      "3": 16,
      "4": 17,
      "5": 18,
      "6": 19,
      "7": 20,
      "8": 21,
      "9": 22,
      ":": 23,
      ";": 24,
      "?": 25,
      "A": 26,
      "B": 27,
      "C": 28,
      "D": 29,
      "E": 30,
      "F": 31,
      "G": 32,
      "H": 33,
      "I": 34,
      "J": 35,
      "K": 36,
      "L": 37,
      "M": 38,
      "N": 39,
      "O": 40,
      "P": 41,
      "Q": 42,
      "R": 43,
      "S": 44,
      "T": 45,
      "U": 46,
      "V": 47,
      "W": 48,
      "X": 49,
      "Y": 50,
      "Z": 51,
      "[": 52,
      "\\": 53,
      "a": 54,
      "b": 55,
      "c": 56,
      "d": 57,
      "e": 58,
      "f": 59,
      "g": 60,
      "h": 61,
      "i": 62,
      "j": 63,
      "k": 64,
      "l": 65,
      "m": 66,
      "n": 67,
      "o": 68,
      "p": 69,
      "q": 70,
      "r": 71,
      "s": 72,
      "t": 73,
      "u": 74,
      "v": 75,
      "w": 76,
      "x": 77,
      "y": 78,
      "z": 79,
      "{": 80,
      "}": 81,
      "—": 82,
      "‘": 83,
      "’": 84,
      "“": 85,
      "”": 86,
      "th": 87,
      "the": 88,
      "in": 89,
      "an": 90,
      "re": 91,
      "ou": 92,
      "and": 93,
      "on": 94,
      "er": 95,
      "at": 96,
      "he": 97,
      "as": 98,
      "ed": 99,
      "en": 100,
      "of": 101,
      "to": 102,
      "ing": 103,
      "or": 104,
      "ll": 105,
      "is": 106,
      "ar": 107,
      "es": 108,
      "it": 109,
      "ha": 110,
      "le": 111,
      "st": 112,
      "me": 113,
      "be": 114,
      "ow": 115,
      "we": 116,
      "was": 117,
      "se": 118,
      "id": 119,
      "ld": 120,
      "hi": 121,
      "ro": 122,
      "ve": 123,
      "gh": 124,
      "wi": 125,
      "ac": 126,
      "that": 127,
      "no": 128,
      "ly": 129,
      "al": 130,
      "ch": 131,
      "all": 132,
      "ver": 133,
      "you": 134,
      "his": 135,
      "had": 136,
      "ut": 137,
      "li": 138,
      "ir": 139,
      "ay": 140,
      "The": 141,
      "for": 142,
      "ad": 143,
      "un": 144,
      "ri": 145,
      "ght": 146,
      "with": 147,
      "ould": 148,
      "so": 149,
      "ti": 150,
      "sa": 151,
      "oo": 152,
      "they": 153,
      "ent": 154,
      "up": 155,
      "ke": 156,
      "ag": 157,
      "ce": 158,
      "ho": 159,
      "were": 160,
      "out": 161,
      "oun": 162,
      "not": 163,
      "ur": 164,
      "co": 165,
      "our": 166,
      "am": 167,
      "ain": 168,
      "bo": 169,
      "mo": 170,
      "one": 171,
      "us": 172,
      "il": 173,
      "whi": 174,
      "ne": 175,
      "ter": 176,
      "pe": 177,
      "fe": 178,
      "red": 179,
      "ge": 180,
      "have": 181,
      "ard": 182,
      "go": 183,
      "said": 184,
      "ca": 185,
      "ther": 186,
      "ab": 187,
      "my": 188,
      "ong": 189,
      "them": 190,
      "which": 191,
      "rom": 192,
      "but": 193,
      "hat": 194,
      "de": 195,
      "ess": 196,
      "him": 197,
      "own": 198,
      "ck": 199,
      "um": 200,
      "are": 201,
      "ast": 202,
      "from": 203,
      "their": 204,
      "fo": 205,
      "ves": 206,
      "whe": 207,
      "sh": 208,
      "lo": 209,
      "po": 210,
      "ion": 211,
      "ack": 212,
      "could": 213,
      "if": 214,
      "ound": 215,
      "bl": 216,
      "ood": 217,
      "some": 218,
      "there": 219,
      "do": 220,
      "pl": 221,
      "ind": 222,
      "He": 223,
      "ure": 224,
      "way": 225,
      "any": 226,
      "now": 227,
      "gre": 228,
      "ap": 229,
      "end": 230,
      "ex": 231,
      "It": 232,
      "thing": 233,
      "et": 234,
      "Bil": 235,
      "Bilbo": 236,
      "by": 237,
      "fi": 238,
      "ous": 239,
      "very": 240,
      "this": 241,
      "fore": 242,
      "tr": 243,
      "!”": 244,
      "see": 245,
      "ough": 246,
      "ul": 247,
      "ust": 248,
      "ide": 249,
      "ight": 250,
      "qu": 251,
      "would": 252,
      "te": 253,
      "down": 254,
      "ted": 255,
      "king": 256,
      "ven": 257,
      "upon": 258,
      "hall": 259,
      "war": 260,
      "gr": 261,
      "der": 262,
      "can": 263,
      "br": 264,
      "ill": 265,
      "su": 266,
      "into": 267,
      "been": 268,
      "hed": 269,
      ".\"": 270,
      "like": 271,
      "more": 272,
      "ss": 273,
      "ate": 274,
      "ord": 275,
      "ped": 276,
      "ake": 277,
      "ked": 278,
      "ger": 279,
      "con": 280,
      "will": 281,
      "too": 282,
      "com": 283,
      "sp": 284,
      "lf": 285,
      "back": 286,
      "ep": 287,
      "what": 288,
      "who": 289,
      "--": 290,
      "tain": 291,
      "when": 292,
      "long": 293,
      "tre": 294,
      "ins": 295,
      "came": 296,
      "We": 297,
      "im": 298,
      "hor": 299,
      "great": 300,
      "loo": 301,
      "your": 302,
      "other": 303,
      "ers": 304,
      "ace": 305,
      "ic": 306,
      "ts": 307,
      ",”": 308,
      "tion": 309,
      "man": 310,
      "af": 311,
      "el": 312,
      "before": 313,
      "pre": 314,
      "time": 315,
      "op": 316,
      "But": 317,
      "ark": 318,
      "over": 319,
      "itt": 320,
      "dwar": 321,
      "dr": 322,
      "mer": 323,
      "nd": 324,
      "au": 325,
      "str": 326,
      "ought": 327,
      "ite": 328,
      ".”": 329,
      "day": 330,
      "low": 331,
      "again": 332,
      "come": 333,
      "cr": 334,
      "ant": 335,
      "They": 336,
      "ey": 337,
      "urn": 338,
      "about": 339,
      "ble": 340,
      "ci": 341,
      "bit": 342,
      "able": 343,
      "get": 344,
      "wo": 345,
      "ment": 346,
      "dis": 347,
      "than": 348,
      "ation": 349,
      ",\"": 350,
      "light": 351,
      "ever": 352,
      "only": 353,
      "est": 354,
      "thr": 355,
      "There": 356,
      "dwarves": 357,
      "ak": 358,
      "per": 359,
      "ward": 360,
      "ade": 361,
      "ountain": 362,
      "pro": 363,
      "ally": 364,
      "cl": 365,
      "ass": 366,
      "turn": 367,
      "self": 368,
      "hand": 369,
      "ink": 370,
      "men": 371,
      "should": 372,
      "ittle": 373,
      "ct": 374,
      "cre": 375,
      "good": 376,
      "little": 377,
      "So": 378,
      "ive": 379,
      "where": 380,
      "led": 381,
      "last": 382,
      "its": 383,
      "Thor": 384,
      "did": 385,
      "Thorin": 386,
      "med": 387,
      "off": 388,
      "under": 389,
      "after": 390,
      "ick": 391,
      "ty": 392,
      "enger": 393,
      "still": 394,
      "read": 395,
      "even": 396,
      "far": 397,
      "ance": 398,
      "head": 399,
      "ath": 400,
      "wor": 401,
      "ig": 402,
      "par": 403,
      "then": 404,
      "mb": 405,
      "most": 406,
      "know": 407,
      "ning": 408,
      "You": 409,
      "ence": 410,
      "Chall": 411,
      "che": 412,
      "dark": 413,
      "ried": 414,
      "got": 415,
      "Challenger": 416,
      "wat": 417,
      "rof": 418,
      "ans": 419,
      "In": 420,
      "?\"": 421,
      "made": 422,
      "ting": 423,
      "dd": 424,
      "gl": 425,
      "round": 426,
      "ine": 427,
      "gu": 428,
      "went": 429,
      "aw": 430,
      "how": 431,
      "right": 432,
      "And": 433,
      "ved": 434,
      "rofess": 435,
      "Then": 436,
      "through": 437,
      "side": 438,
      "ull": 439,
      "here": 440,
      "ave": 441,
      "may": 442,
      "well": 443,
      "fl": 444,
      "thought": 445,
      "say": 446,
      "ry": 447,
      "rofessor": 448,
      "while": 449,
      "ish": 450,
      "must": 451,
      "air": 452,
      "away": 453,
      "ful": 454,
      "wood": 455,
      "alf": 456,
      "fell": 457,
      "don": 458,
      "beg": 459,
      "What": 460,
      "hap": 461,
      "Professor": 462,
      "ft": 463,
      "less": 464,
      "spe": 465,
      "ort": 466,
      "Gand": 467,
      "has": 468,
      "sm": 469,
      "age": 470,
      "Gandalf": 471,
      "gobl": 472,
      "di": 473,
      "mu": 474,
      "night": 475,
      "No": 476,
      "ang": 477,
      "ummer": 478,
      "irst": 479,
      "door": 480,
      "ened": 481,
      "bbit": 482,
      "never": 483,
      "?”": 484,
      "ear": 485,
      "new": 486,
      "ach": 487,
      "many": 488,
      "two": 489,
      "sto": 490,
      "vo": 491,
      "Lord": 492,
      "old": 493,
      "vi": 494,
      "think": 495,
      "hobbit": 496,
      "found": 497,
      "hun": 498,
      "pt": 499,
      "ature": 500,
      "lee": 501,
      "eyes": 502,
      "much": 503,
      "cle": 504,
      "hind": 505,
      "just": 506,
      "ue": 507,
      "such": 508,
      "first": 509,
      "wards": 510,
      "use": 511,
      "dden": 512,
      "ather": 513,
      "car": 514,
      "des": 515,
      "won": 516,
      "word": 517,
      "res": 518,
      "these": 519,
      "Summer": 520,
      "though": 521,
      "ving": 522,
      "Summerlee": 523,
      "ring": 524,
      "bre": 525,
      "Go": 526,
      "coun": 527,
      "saw": 528,
      "pr": 529,
      "ten": 530,
      "ms": 531,
      "bet": 532,
      "That": 533,
      "mor": 534,
      "Mountain": 535,
      "cli": 536,
      "agon": 537,
      "hear": 538,
      "behind": 539,
      "agg": 540,
      "rock": 541,
      "act": 542,
      "ared": 543,
      "ows": 544,
      "trees": 545,
      "fri": 546,
      "might": 547,
      "heard": 548,
      "goblins": 549,
      "ies": 550,
      "Jo": 551,
      "shall": 552,
      "seemed": 553,
      "looked": 554,
      "!\"": 555,
      "water": 556,
      "friend": 557,
      "find": 558,
      "amp": 559,
      "every": 560,
      "land": 561,
      "ron": 562,
      "wa": 563,
      "cour": 564,
      "clo": 565,
      "ff": 566,
      "hel": 567,
      "ross": 568,
      "hn": 569,
      "left": 570,
      "les": 571,
      "sing": 572,
      "ated": 573,
      "John": 574,
      "abo": 575,
      "vent": 576,
      "place": 577,
      "sup": 578,
      "soon": 579,
      "poin": 580,
      "ity": 581,
      "yet": 582,
      "til": 583,
      "among": 584,
      "pped": 585,
      "az": 586,
      "ple": 587,
      "llow": 588,
      "nothing": 589,
      "fire": 590,
      "ls": 591,
      "uck": 592,
      "ise": 593,
      "tic": 594,
      "dragon": 595,
      "make": 596,
      "seen": 597,
      "above": 598,
      "Be": 599,
      "sha": 600,
      "full": 601,
      "lay": 602,
      "ank": 603,
      "river": 604,
      "feet": 605,
      "As": 606,
      "sudden": 607,
      "Mr": 608,
      "ef": 609,
      "tal": 610,
      "wh": 611,
      "ches": 612,
      "mountain": 613,
      "outh": 614,
      "ist": 615,
      "himself": 616,
      "rem": 617,
      "near": 618,
      "appe": 619,
      "open": 620,
      "call": 621,
      "face": 622,
      "ser": 623,
      "xt": 624,
      "stre": 625,
      "ling": 626,
      "lves": 627,
      "ness": 628,
      "rest": 629,
      "until": 630,
      "ready": 631,
      "bus": 632,
      "ice": 633,
      "thre": 634,
      "let": 635,
      "things": 636,
      "Now": 637,
      "sil": 638,
      "ction": 639,
      "once": 640,
      "star": 641,
      "something": 642,
      "ched": 643,
      "pass": 644,
      "ings": 645,
      "hard": 646,
      "put": 647,
      "aug": 648,
      "row": 649,
      "sent": 650,
      "creature": 651,
      "dre": 652,
      "stand": 653,
      "Well": 654,
      "aking": 655,
      "cried": 656,
      "orn": 657,
      "without": 658,
      "ale": 659,
      "gs": 660,
      "ng": 661,
      "ob": 662,
      "sho": 663,
      "going": 664,
      "deep": 665,
      "high": 666,
      "along": 667,
      "If": 668,
      "fall": 669,
      "try": 670,
      "tree": 671,
      "mar": 672,
      "sur": 673,
      "bro": 674,
      "iz": 675,
      "nor": 676,
      "ste": 677,
      "turned": 678,
      "om": 679,
      "sed": 680,
      "ili": 681,
      "ose": 682,
      "path": 683,
      "fic": 684,
      "look": 685,
      "This": 686,
      "ping": 687,
      "ange": 688,
      "ook": 689,
      "black": 690,
      "course": 691,
      "Bagg": 692,
      "dif": 693,
      "lt": 694,
      "ones": 695,
      "feel": 696,
      "began": 697,
      "Baggins": 698,
      "dan": 699,
      "sl": 700,
      "set": 701,
      "gold": 702,
      "mat": 703,
      "take": 704,
      "till": 705,
      "At": 706,
      "sk": 707,
      "sat": 708,
      "ground": 709,
      "mon": 710,
      "run": 711,
      "sit": 712,
      "stoo": 713,
      "moment": 714,
      "took": 715,
      "cas": 716,
      "mis": 717,
      "tun": 718,
      "tor": 719,
      "same": 720,
      "ople": 721,
      "small": 722,
      "Ind": 723,
      "cur": 724,
      "those": 725,
      "ird": 726,
      "used": 727,
      "tell": 728,
      "Indi": 729,
      "ame": 730,
      "chi": 731,
      "lar": 732,
      "lled": 733,
      "sun": 734,
      "llum": 735,
      "ways": 736,
      "forest": 737,
      "days": 738,
      "wonder": 739,
      "ious": 740,
      "att": 741,
      "dist": 742,
      "camp": 743,
      "give": 744,
      "ru": 745,
      "wall": 746,
      "ined": 747,
      "quite": 748,
      "cha": 749,
      "ible": 750,
      "ince": 751,
      "aster": 752,
      "across": 753,
      "ign": 754,
      "each": 755,
      "hu": 756,
      "pon": 757,
      "sc": 758,
      "asked": 759,
      "ary": 760,
      "stone": 761,
      "morning": 762,
      "spo": 763,
      "ud": 764,
      "ren": 765,
      "alin": 766,
      "ards": 767,
      "help": 768,
      "venture": 769,
      "Sm": 770,
      "ail": 771,
      "cted": 772,
      "wr": 773,
      "lls": 774,
      "people": 775,
      "poss": 776,
      "tered": 777,
      "elves": 778,
      "happ": 779,
      "mes": 780,
      "shad": 781,
      "ond": 782,
      "tow": 783,
      "life": 784,
      "dou": 785,
      "enough": 786,
      "young": 787,
      "lie": 788,
      "rible": 789,
      "comp": 790,
      "suddenly": 791,
      "On": 792,
      "aid": 793,
      "another": 794,
      "ished": 795,
      "bran": 796,
      "clear": 797,
      "Smaug": 798,
      "oud": 799,
      "ene": 800,
      "ush": 801,
      "friends": 802,
      "Th": 803,
      "bed": 804,
      "cer": 805,
      "ily": 806,
      "sound": 807,
      "edge": 808,
      "toge": 809,
      "half": 810,
      "ket": 811,
      "deed": 812,
      "ions": 813,
      "brought": 814,
      "together": 815,
      "fast": 816,
      "kn": 817,
      "ken": 818,
      "being": 819,
      "alone": 820,
      "av": 821,
      "ks": 822,
      "whole": 823,
      "Gollum": 824,
      "wait": 825,
      "gave": 826,
      "jo": 827,
      "ons": 828,
      "ween": 829,
      "ult": 830,
      "between": 831,
      "three": 832,
      "stood": 833,
      "mp": 834,
      "sure": 835,
      "slow": 836,
      "wind": 837,
      "reme": 838,
      "ering": 839,
      "also": 840,
      "lost": 841,
      "expe": 842,
      "doub": 843,
      "done": 844,
      "thin": 845,
      "really": 846,
      "few": 847,
      "Some": 848,
      "ront": 849,
      "gi": 850,
      "gone": 851,
      "mind": 852,
      "green": 853,
      "others": 854,
      "dire": 855,
      "Bo": 856,
      "cent": 857,
      "always": 858,
      "adventure": 859,
      "All": 860,
      "dy": 861,
      "foo": 862,
      "mit": 863,
      "hes": 864,
      "follow": 865,
      "coming": 866,
      "world": 867,
      "part": 868,
      "danger": 869,
      "since": 870,
      "aces": 871,
      "quick": 872,
      "hands": 873,
      "point": 874,
      "mountains": 875,
      "huge": 876,
      "For": 877,
      "dred": 878,
      "pi": 879,
      "idd": 880,
      "alley": 881,
      "hundred": 882,
      "cliff": 883,
      "bur": 884,
      "gg": 885,
      "je": 886,
      "sci": 887,
      "ens": 888,
      "top": 889,
      "towards": 890,
      "ars": 891,
      "already": 892,
      "hope": 893,
      "strange": 894,
      "mber": 895,
      "town": 896,
      "bar": 897,
      "estion": 898,
      "selves": 899,
      "ider": 900,
      "pose": 901,
      "exce": 902,
      "white": 903,
      "large": 904,
      "fle": 905,
      "tro": 906,
      "below": 907,
      "plate": 908,
      "ces": 909,
      "cri": 910,
      "knew": 911,
      "table": 912,
      "valley": 913,
      "qui": 914,
      "guess": 915,
      "voice": 916,
      "Balin": 917,
      "His": 918,
      "Ro": 919,
      "bird": 920,
      "ced": 921,
      "four": 922,
      "front": 923,
      "hur": 924,
      "hum": 925,
      "tin": 926,
      "ery": 927,
      "hen": 928,
      "wiz": 929,
      "ushed": 930,
      "cause": 931,
      "better": 932,
      "pleas": 933,
      "kind": 934,
      "enti": 935,
      "moon": 936,
      "against": 937,
      "tunne": 938,
      "plateau": 939,
      "eag": 940,
      "ered": 941,
      "her": 942,
      "lad": 943,
      "lake": 944,
      "ned": 945,
      "ome": 946,
      "ouse": 947,
      "ung": 948,
      "keep": 949,
      "cold": 950,
      "next": 951,
      "haps": 952,
      "passed": 953,
      "flo": 954,
      "min": 955,
      "leep": 956,
      "step": 957,
      "hold": 958,
      "Indians": 959,
      "To": 960,
      "fair": 961,
      "sn": 962,
      "inter": 963,
      "mean": 964,
      "vered": 965,
      "ute": 966,
      "bled": 967,
      "however": 968,
      "climb": 969,
      "Wh": 970,
      "ber": 971,
      "bes": 972,
      "pers": 973,
      "ash": 974,
      "assa": 975,
      "form": 976,
      "forward": 977,
      "iles": 978,
      "ular": 979,
      "words": 980,
      "Beorn": 981,
      "direction": 982,
      "When": 983,
      "sign": 984,
      "vis": 985,
      "arm": 986,
      "times": 987,
      "need": 988,
      "cond": 989,
      "press": 990,
      "strong": 991,
      "break": 992,
      "stream": 993,
      "doubt": 994,
      "South": 995,
      "big": 996,
      "wal": 997,
      "ask": 998,
      "ching": 999,
      "felt": 1000,
      "question": 1001,
      "imp": 1002,
      "looking": 1003,
      "preci": 1004,
      "itting": 1005,
      "matter": 1006,
      "certain": 1007,
      "wizard": 1008,
      "bank": 1009,
      "jour": 1010,
      "tri": 1011,
      "iness": 1012,
      "return": 1013,
      "least": 1014,
      "safe": 1015,
      "myself": 1016,
      "dead": 1017,
      "ended": 1018,
      "ears": 1019,
      "appeared": 1020,
      "called": 1021,
      "cu": 1022,
      "dro": 1023,
      "ev": 1024,
      "eat": 1025,
      "oc": 1026,
      "ori": 1027,
      "wild": 1028,
      "ained": 1029,
      "fear": 1030,
      "care": 1031,
      "chief": 1032,
      "known": 1033,
      "Wi": 1034,
      "she": 1035,
      "want": 1036,
      "sol": 1037,
      "body": 1038,
      "gry": 1039,
      "comfor": 1040,
      "getting": 1041,
      "mbur": 1042,
      "Not": 1043,
      "pris": 1044,
      "Bombur": 1045,
      "fter": 1046,
      "sort": 1047,
      "ye": 1048,
      "esca": 1049,
      "belie": 1050,
      "lying": 1051,
      "creatures": 1052,
      "After": 1053,
      "Bard": 1054,
      "aut": 1055,
      "bow": 1056,
      "best": 1057,
      "eas": 1058,
      "ran": 1059,
      "whis": 1060,
      "wide": 1061,
      "told": 1062,
      "both": 1063,
      "present": 1064,
      "How": 1065,
      "Lake": 1066,
      "fur": 1067,
      "fact": 1068,
      "sw": 1069,
      "sli": 1070,
      "song": 1071,
      "ually": 1072,
      "rep": 1073,
      "asure": 1074,
      "bey": 1075,
      "move": 1076,
      "shout": 1077,
      "horrible": 1078,
      "draw": 1079,
      "aken": 1080,
      "woods": 1081,
      "hardly": 1082,
      "ither": 1083,
      "line": 1084,
      "ner": 1085,
      "sir": 1086,
      "ught": 1087,
      "indeed": 1088,
      "arp": 1089,
      "legs": 1090,
      "because": 1091,
      "ached": 1092,
      "home": 1093,
      "ney": 1094,
      "cked": 1095,
      "show": 1096,
      "cir": 1097,
      "pes": 1098,
      "ub": 1099,
      "caught": 1100,
      "anything": 1101,
      "grew": 1102,
      "grow": 1103,
      "suppose": 1104,
      "diffic": 1105,
      "slowly": 1106,
      "person": 1107,
      "journey": 1108,
      "My": 1109,
      "eld": 1110,
      "ges": 1111,
      "lau": 1112,
      "nar": 1113,
      "pic": 1114,
      "ys": 1115,
      "anim": 1116,
      "real": 1117,
      "meet": 1118,
      "beard": 1119,
      "road": 1120,
      "cho": 1121,
      "char": 1122,
      "ump": 1123,
      "inside": 1124,
      "count": 1125,
      "ponies": 1126,
      "possible": 1127,
      "ape": 1128,
      "cess": 1129,
      "food": 1130,
      "hour": 1131,
      "rather": 1132,
      "van": 1133,
      "ago": 1134,
      "que": 1135,
      "country": 1136,
      "ize": 1137,
      "tunnel": 1138,
      "animal": 1139,
      "Fili": 1140,
      "athe": 1141,
      "house": 1142,
      "miles": 1143,
      "od": 1144,
      "slo": 1145,
      "sitting": 1146,
      "ense": 1147,
      "covered": 1148,
      "boat": 1149,
      "appear": 1150,
      "business": 1151,
      "chair": 1152,
      "El": 1153,
      "nat": 1154,
      "scr": 1155,
      "reas": 1156,
      "begin": 1157,
      "fully": 1158,
      "shot": 1159,
      "branches": 1160,
      "quiet": 1161,
      "believe": 1162,
      "beyond": 1163,
      "Al": 1164,
      "By": 1165,
      "Su": 1166,
      "fin": 1167,
      "fre": 1168,
      "name": 1169,
      "ris": 1170,
      "swi": 1171,
      "leave": 1172,
      "rope": 1173,
      "neare": 1174,
      "feren": 1175,
      "poc": 1176,
      "plain": 1177,
      "cannot": 1178,
      "treasure": 1179,
      "evening": 1180,
      "xton": 1181,
      "compan": 1182,
      "remember": 1183,
      "Roxton": 1184,
      "TH": 1185,
      "flow": 1186,
      "ged": 1187,
      "luck": 1188,
      "mag": 1189,
      "ror": 1190,
      "smo": 1191,
      "spl": 1192,
      "thick": 1193,
      "arms": 1194,
      "lea": 1195,
      "does": 1196,
      "plan": 1197,
      "work": 1198,
      "answ": 1199,
      "talk": 1200,
      "nearly": 1201,
      "distance": 1202,
      "Don": 1203,
      "One": 1204,
      "father": 1205,
      "kill": 1206,
      "wish": 1207,
      "ener": 1208,
      "ition": 1209,
      "coll": 1210,
      "filled": 1211,
      "opened": 1212,
      "guard": 1213,
      "rocks": 1214,
      "dream": 1215,
      "eneath": 1216,
      "Amer": 1217,
      "gri": 1218,
      "passa": 1219,
      "sword": 1220,
      "bear": 1221,
      "room": 1222,
      "hole": 1223,
      "whether": 1224,
      "short": 1225,
      "blue": 1226,
      "bring": 1227,
      "imag": 1228,
      "ical": 1229,
      "darkness": 1230,
      "fellow": 1231,
      "vol": 1232,
      "heart": 1233,
      "foot": 1234,
      "barre": 1235,
      "Ameri": 1236,
      "Come": 1237,
      "cross": 1238,
      "ile": 1239,
      "making": 1240,
      "ra": 1241,
      "shi": 1242,
      "sight": 1243,
      "sleep": 1244,
      "taken": 1245,
      "inte": 1246,
      "held": 1247,
      "lling": 1248,
      "stones": 1249,
      "ident": 1250,
      "aged": 1251,
      "conf": 1252,
      "longer": 1253,
      "dwarf": 1254,
      "cry": 1255,
      "ations": 1256,
      "heads": 1257,
      "lands": 1258,
      "silver": 1259,
      "attle": 1260,
      "floor": 1261,
      "beneath": 1262,
      "ew": 1263,
      "gro": 1264,
      "num": 1265,
      "pri": 1266,
      "sor": 1267,
      "ining": 1268,
      "rely": 1269,
      "orm": 1270,
      "lead": 1271,
      "almost": 1272,
      "ably": 1273,
      "eye": 1274,
      "close": 1275,
      "fright": 1276,
      "rain": 1277,
      "wand": 1278,
      "yes": 1279,
      "beast": 1280,
      "ides": 1281,
      "outside": 1282,
      "iled": 1283,
      "poor": 1284,
      "teen": 1285,
      "carried": 1286,
      "ized": 1287,
      "differen": 1288,
      "feeling": 1289,
      "interest": 1290,
      "dread": 1291,
      "ives": 1292,
      "lk": 1293,
      "late": 1294,
      "pick": 1295,
      "tall": 1296,
      "uff": 1297,
      "lived": 1298,
      "add": 1299,
      "within": 1300,
      "cons": 1301,
      "else": 1302,
      "understand": 1303,
      "carry": 1304,
      "why": 1305,
      "remark": 1306,
      "opening": 1307,
      "further": 1308,
      "answer": 1309,
      "Ar": 1310,
      "ER": 1311,
      "Even": 1312,
      "From": 1313,
      "Nor": 1314,
      "cat": 1315,
      "cut": 1316,
      "dri": 1317,
      "tent": 1318,
      "val": 1319,
      "eng": 1320,
      "enorm": 1321,
      "ited": 1322,
      "chance": 1323,
      "themselves": 1324,
      "dered": 1325,
      "apped": 1326,
      "ending": 1327,
      "exp": 1328,
      "grass": 1329,
      "peri": 1330,
      "speak": 1331,
      "precious": 1332,
      "reason": 1333,
      "enormous": 1334,
      "Let": 1335,
      "bad": 1336,
      "pack": 1337,
      "swe": 1338,
      "tw": 1339,
      "ert": 1340,
      "hair": 1341,
      "leap": 1342,
      "stant": 1343,
      "beaut": 1344,
      "Their": 1345,
      "caves": 1346,
      "exc": 1347,
      "true": 1348,
      "idea": 1349,
      "brid": 1350,
      "cially": 1351,
      "perhaps": 1352,
      "Soon": 1353,
      "goblin": 1354,
      "stopped": 1355,
      "view": 1356,
      "descri": 1357,
      "case": 1358,
      "spoke": 1359,
      "expect": 1360,
      "With": 1361,
      "),": 1362,
      "Fo": 1363,
      "gun": 1364,
      "gent": 1365,
      "gate": 1366,
      "hood": 1367,
      "pow": 1368,
      "pur": 1369,
      "years": 1370,
      "ater": 1371,
      "sever": 1372,
      "iders": 1373,
      "forgot": 1374,
      "kept": 1375,
      "ages": 1376,
      "fect": 1377,
      "cave": 1378,
      "Here": 1379,
      "tru": 1380,
      "trou": 1381,
      "shadow": 1382,
      "shadows": 1383,
      "expected": 1384,
      "adventures": 1385,
      "breakfast": 1386,
      "several": 1387,
      "Kili": 1388,
      "Malone": 1389,
      "Of": 1390,
      "bu": 1391,
      "hang": 1392,
      "ix": 1393,
      "ny": 1394,
      "none": 1395,
      "rang": 1396,
      "reached": 1397,
      "ating": 1398,
      "lear": 1399,
      "ster": 1400,
      "bered": 1401,
      "noise": 1402,
      "deal": 1403,
      "folk": 1404,
      "log": 1405,
      "bling": 1406,
      "five": 1407,
      "letter": 1408,
      "broken": 1409,
      "entific": 1410,
      "Why": 1411,
      "beside": 1412,
      "beginning": 1413,
      "Dori": 1414,
      "HA": 1415,
      "Ri": 1416,
      "Where": 1417,
      "cing": 1418,
      "fer": 1419,
      "gle": 1420,
      "lit": 1421,
      "mid": 1422,
      "mouth": 1423,
      "pin": 1424,
      "pat": 1425,
      "sme": 1426,
      "ual": 1427,
      "anted": 1428,
      "angry": 1429,
      "heav": 1430,
      "ised": 1431,
      "secre": 1432,
      "These": 1433,
      "kets": 1434,
      "wered": 1435,
      "iful": 1436,
      "spiders": 1437,
      "crack": 1438,
      "vice": 1439,
      "Gobl": 1440,
      "fallen": 1441,
      "sky": 1442,
      "scientific": 1443,
      "human": 1444,
      "prison": 1445,
      "Dale": 1446,
      "Master": 1447,
      "Will": 1448,
      "loud": 1449,
      "ns": 1450,
      "son": 1451,
      "ors": 1452,
      "bot": 1453,
      "umbled": 1454,
      "asty": 1455,
      "experi": 1456,
      "trun": 1457,
      "seem": 1458,
      "casion": 1459,
      "given": 1460,
      "iddle": 1461,
      "ject": 1462,
      "birds": 1463,
      "bright": 1464,
      "battle": 1465,
      "du": 1466,
      "ol": 1467,
      "order": 1468,
      "itself": 1469,
      "ames": 1470,
      "cap": 1471,
      "posit": 1472,
      "tra": 1473,
      "ments": 1474,
      "answered": 1475,
      "ddenly": 1476,
      "aze": 1477,
      "drew": 1478,
      "wonderful": 1479,
      "comfortable": 1480,
      "shouted": 1481,
      "Suddenly": 1482,
      "gleam": 1483,
      "heavy": 1484,
      "Very": 1485,
      "ald": 1486,
      "aim": 1487,
      "boo": 1488,
      "ele": 1489,
      "fam": 1490,
      "fif": 1491,
      "gure": 1492,
      "gener": 1493,
      "uri": 1494,
      "ative": 1495,
      "ashed": 1496,
      "often": 1497,
      "became": 1498,
      "lic": 1499,
      "col": 1500,
      "sharp": 1501,
      "figure": 1502,
      "sub": 1503,
      "ately": 1504,
      "spring": 1505,
      "pret": 1506,
      "wolves": 1507,
      "watch": 1508,
      "glar": 1509,
      "bushes": 1510,
      "followed": 1511,
      "athered": 1512,
      "beautiful": 1513,
      "Gre": 1514,
      "Good": 1515,
      "Our": 1516,
      "Who": 1517,
      "dare": 1518,
      "either": 1519,
      "gloo": 1520,
      "gathered": 1521,
      "laid": 1522,
      "tou": 1523,
      "rose": 1524,
      "account": 1525,
      "alive": 1526,
      "rifle": 1527,
      "amid": 1528,
      "iling": 1529,
      "ordin": 1530,
      "share": 1531,
      "silent": 1532,
      "obser": 1533,
      "certainly": 1534,
      "occasion": 1535,
      "laugh": 1536,
      "narrow": 1537,
      "different": 1538,
      "consider": 1539,
      "bridge": 1540,
      ").": 1541,
      "II": 1542,
      "Per": 1543,
      "ek": 1544,
      "em": 1545,
      "fr": 1546,
      "map": 1547,
      "past": 1548,
      "sion": 1549,
      "size": 1550,
      "ton": 1551,
      "reg": 1552,
      "attered": 1553,
      "art": 1554,
      "arch": 1555,
      "having": 1556,
      "second": 1557,
      "hill": 1558,
      "aint": 1559,
      "neck": 1560,
      "umped": 1561,
      "therefore": 1562,
      "places": 1563,
      "tee": 1564,
      "ices": 1565,
      "stra": 1566,
      "glad": 1567,
      "earth": 1568,
      "silence": 1569,
      "pie": 1570,
      "difficult": 1571,
      "dreadful": 1572,
      "secret": 1573,
      "En": 1574,
      "OR": 1575,
      "Yes": 1576,
      "cus": 1577,
      "ses": 1578,
      "ture": 1579,
      "thro": 1580,
      "stick": 1581,
      "wel": 1582,
      "ceed": 1583,
      "terrible": 1584,
      "dear": 1585,
      "lot": 1586,
      "exped": 1587,
      "fight": 1588,
      "tem": 1589,
      "likely": 1590,
      "contin": 1591,
      "claim": 1592,
      "worth": 1593,
      "parts": 1594,
      "news": 1595,
      "running": 1596,
      "Indian": 1597,
      "waiting": 1598,
      "dangerous": 1599,
      "except": 1600,
      "THE": 1601,
      "magic": 1602,
      "North": 1603,
      "Gate": 1604,
      "Mir": 1605,
      "bb": 1606,
      "cy": 1607,
      "fat": 1608,
      "hon": 1609,
      "iam": 1610,
      "laug": 1611,
      "ni": 1612,
      "nasty": 1613,
      "rad": 1614,
      "rows": 1615,
      "tled": 1616,
      "tried": 1617,
      "ured": 1618,
      "yed": 1619,
      "ants": 1620,
      "reach": 1621,
      "ates": 1622,
      "stay": 1623,
      "idence": 1624,
      "live": 1625,
      "forth": 1626,
      "und": 1627,
      "ghter": 1628,
      "save": 1629,
      "fier": 1630,
      "started": 1631,
      "monstr": 1632,
      "guessed": 1633,
      "escape": 1634,
      "songs": 1635,
      "swift": 1636,
      "explo": 1637,
      "trouble": 1638,
      "River": 1639,
      "laughed": 1640,
      ".)": 1641,
      "Mo": 1642,
      "burn": 1643,
      "cor": 1644,
      "elf": 1645,
      "emp": 1646,
      "fac": 1647,
      "gli": 1648,
      "ied": 1649,
      "ps": 1650,
      "pal": 1651,
      "pter": 1652,
      "rough": 1653,
      "race": 1654,
      "taking": 1655,
      "wings": 1656,
      "incl": 1657,
      "height": 1658,
      "meant": 1659,
      "alth": 1660,
      "liar": 1661,
      "shri": 1662,
      "love": 1663,
      "trave": 1664,
      "audi": 1665,
      "ledge": 1666,
      "doors": 1667,
      "pointed": 1668,
      "remain": 1669,
      "standing": 1670,
      "climbed": 1671,
      "slipped": 1672,
      "leaves": 1673,
      "passage": 1674,
      "William": 1675,
      "ordinary": 1676,
      "straight": 1677,
      ".'": 1678,
      "Bert": 1679,
      "Dain": 1680,
      "Glad": 1681,
      "Just": 1682,
      "King": 1683,
      "Qu": 1684,
      "ah": 1685,
      "fing": 1686,
      "fine": 1687,
      "flying": 1688,
      "ire": 1689,
      "kwood": 1690,
      "lan": 1691,
      "ler": 1692,
      "mark": 1693,
      "pale": 1694,
      "rushed": 1695,
      "six": 1696,
      "yards": 1697,
      "instant": 1698,
      "ref": 1699,
      "espe": 1700,
      "roar": 1701,
      "acty": 1702,
      "utes": 1703,
      "lies": 1704,
      "cover": 1705,
      "ourselves": 1706,
      "moved": 1707,
      "shining": 1708,
      "doing": 1709,
      "spir": 1710,
      "dry": 1711,
      "stru": 1712,
      "fellah": 1713,
      "spect": 1714,
      "hung": 1715,
      "single": 1716,
      "marked": 1717,
      "golden": 1718,
      "torches": 1719,
      "happened": 1720,
      "surely": 1721,
      "trolls": 1722,
      "easy": 1723,
      "circle": 1724,
      "odacty": 1725,
      "barrels": 1726,
      "forgotten": 1727,
      "position": 1728,
      "general": 1729,
      "Great": 1730,
      "Mirkwood": 1731,
      "pterodacty": 1732,
      "Gladys": 1733,
      "CHA": 1734,
      "IN": 1735,
      "West": 1736,
      "book": 1737,
      "dim": 1738,
      "pap": 1739,
      "tle": 1740,
      "ats": 1741,
      "hea": 1742,
      "isten": 1743,
      "stri": 1744,
      "met": 1745,
      "tive": 1746,
      "entr": 1747,
      "shut": 1748,
      "track": 1749,
      "trust": 1750,
      "comes": 1751,
      "party": 1752,
      "early": 1753,
      "rond": 1754,
      "talking": 1755,
      "stars": 1756,
      "happen": 1757,
      "eager": 1758,
      "steps": 1759,
      "nearer": 1760,
      "companions": 1761,
      "smoke": 1762,
      "learned": 1763,
      "botto": 1764,
      "fierce": 1765,
      "audience": 1766,
      "Ex": 1767,
      "Map": 1768,
      "Still": 1769,
      "Your": 1770,
      "fish": 1771,
      "faces": 1772,
      "gar": 1773,
      "leng": 1774,
      "master": 1775,
      "middle": 1776,
      "prom": 1777,
      "rup": 1778,
      "tted": 1779,
      "west": 1780,
      "zz": 1781,
      "inc": 1782,
      "aned": 1783,
      "reed": 1784,
      "ase": 1785,
      "isted": 1786,
      "leg": 1787,
      "roo": 1788,
      "rolled": 1789,
      "vel": 1790,
      "liked": 1791,
      "fortun": 1792,
      "admit": 1793,
      "absol": 1794,
      "dev": 1795,
      "grap": 1796,
      "partic": 1797,
      "guards": 1798,
      "desc": 1799,
      "closed": 1800,
      "supper": 1801,
      "walls": 1802,
      "branch": 1803,
      "science": 1804,
      "pleasant": 1805,
      "White": 1806,
      "dropped": 1807,
      "picture": 1808,
      "meeting": 1809,
      "pocket": 1810,
      "grim": 1811,
      "hanging": 1812,
      "prisoners": 1813,
      "expedition": 1814,
      "especially": 1815,
      "Maple": 1816,
      "absolute": 1817,
      "East": 1818,
      "Hill": 1819,
      "bound": 1820,
      "corn": 1821,
      "ez": 1822,
      "igh": 1823,
      "oes": 1824,
      "por": 1825,
      "pull": 1826,
      "raid": 1827,
      "sy": 1828,
      "twi": 1829,
      "tched": 1830,
      "wise": 1831,
      "thous": 1832,
      "rel": 1833,
      "asc": 1834,
      "tory": 1835,
      "orge": 1836,
      "stuck": 1837,
      "stud": 1838,
      "means": 1839,
      "acle": 1840,
      "unning": 1841,
      "unknown": 1842,
      "cei": 1843,
      "ambo": 1844,
      "tering": 1845,
      "grey": 1846,
      "appro": 1847,
      "express": 1848,
      "seems": 1849,
      "spider": 1850,
      "impossible": 1851,
      "tions": 1852,
      "crept": 1853,
      "aware": 1854,
      "story": 1855,
      "dragons": 1856,
      "Before": 1857,
      "shape": 1858,
      "remained": 1859,
      "north": 1860,
      "stead": 1861,
      "steep": 1862,
      "skin": 1863,
      "burglar": 1864,
      "hurried": 1865,
      "escaped": 1866,
      "Elrond": 1867,
      "gentle": 1868,
      "truth": 1869,
      "smell": 1870,
      "particular": 1871,
      "thousand": 1872,
      "Am": 1873,
      "Dr": 1874,
      "Lon": 1875,
      "Re": 1876,
      "Tom": 1877,
      "War": 1878,
      "Zambo": 1879,
      "ax": 1880,
      "echo": 1881,
      "gas": 1882,
      "gaz": 1883,
      "lin": 1884,
      "mut": 1885,
      "mad": 1886,
      "pho": 1887,
      "pushed": 1888,
      "squ": 1889,
      "sque": 1890,
      "tale": 1891,
      "var": 1892,
      "armed": 1893,
      "ided": 1894,
      "velo": 1895,
      "formed": 1896,
      "ool": 1897,
      "key": 1898,
      "loin": 1899,
      "sometimes": 1900,
      "doz": 1901,
      "play": 1902,
      "fires": 1903,
      "warm": 1904,
      "spite": 1905,
      "sprang": 1906,
      "trem": 1907,
      "merry": 1908,
      "lower": 1909,
      "discovered": 1910,
      "turning": 1911,
      "chest": 1912,
      "gling": 1913,
      "fles": 1914,
      "voices": 1915,
      "breed": 1916,
      "threw": 1917,
      "joy": 1918,
      "quickly": 1919,
      "walked": 1920,
      "curi": 1921,
      "yellow": 1922,
      "appearance": 1923,
      "Elven": 1924,
      "killed": 1925,
      "America": 1926,
      "power": 1927,
      "gloom": 1928,
      "Perhaps": 1929,
      "empty": 1930,
      "bottom": 1931,
      "length": 1932,
      "London": 1933,
      "Eag": 1934,
      "Gloin": 1935,
      "May": 1936,
      "Took": 1937,
      "cord": 1938,
      "ging": 1939,
      "listen": 1940,
      "main": 1941,
      "os": 1942,
      "pping": 1943,
      "rate": 1944,
      "sus": 1945,
      "sne": 1946,
      "south": 1947,
      "tail": 1948,
      "wished": 1949,
      "inking": 1950,
      "tori": 1951,
      "llent": 1952,
      "state": 1953,
      "memor": 1954,
      "become": 1955,
      "iding": 1956,
      "acter": 1957,
      "noti": 1958,
      "chang": 1959,
      "unless": 1960,
      "oolog": 1961,
      "ents": 1962,
      "amed": 1963,
      "pered": 1964,
      "dec": 1965,
      "delight": 1966,
      "death": 1967,
      "cking": 1968,
      "plans": 1969,
      "aps": 1970,
      "ously": 1971,
      "halls": 1972,
      "grand": 1973,
      "conv": 1974,
      "comple": 1975,
      "whom": 1976,
      "drink": 1977,
      "struck": 1978,
      "crow": 1979,
      "cient": 1980,
      "proceed": 1981,
      "cloud": 1982,
      "shoulder": 1983,
      "shoulders": 1984,
      "cture": 1985,
      "wenty": 1986,
      "hapter": 1987,
      "prise": 1988,
      "morrow": 1989,
      "actly": 1990,
      "actually": 1991,
      "courage": 1992,
      "service": 1993,
      "streng": 1994,
      "dress": 1995,
      "shore": 1996,
      "attack": 1997,
      "happy": 1998,
      "remem": 1999,
      "thinking": 2000,
      "fool": 2001,
      "cliffs": 2002,
      "burst": 2003,
      "hurry": 2004,
      "personal": 2005,
      "slope": 2006,
      "colle": 2007,
      "Forest": 2008,
      "pretty": 2009,
      "considerable": 2010,
      "Engl": 2011,
      "paper": 2012,
      "graph": 2013,
      "Elvenking": 2014,
      "Is": 2015,
      "Out": 2016,
      "aked": 2017,
      "blo": 2018,
      "dest": 2019,
      "hast": 2020,
      "ib": 2021,
      "kne": 2022,
      "mine": 2023,
      "nature": 2024,
      "port": 2025,
      "sou": 2026,
      "summer": 2027,
      "sense": 2028,
      "twenty": 2029,
      "wanted": 2030,
      "thes": 2031,
      "int": 2032,
      "ances": 2033,
      "erable": 2034,
      "itions": 2035,
      "lecture": 2036,
      "weary": 2037,
      "roof": 2038,
      "notic": 2039,
      "aled": 2040,
      "change": 2041,
      "living": 2042,
      "tired": 2043,
      "ooth": 2044,
      "host": 2045,
      "box": 2046,
      "feast": 2047,
      "arewell": 2048,
      "shook": 2049,
      "blood": 2050,
      "usted": 2051,
      "brain": 2052,
      "sugg": 2053,
      "whose": 2054,
      "--\"": 2055,
      "pres": 2056,
      "discus": 2057,
      "proper": 2058,
      "worse": 2059,
      "smile": 2060,
      "stores": 2061,
      "breath": 2062,
      "mighty": 2063,
      "surface": 2064,
      "broad": 2065,
      "broke": 2066,
      "company": 2067,
      "excellent": 2068,
      "difficul": 2069,
      "scram": 2070,
      "nearest": 2071,
      "pockets": 2072,
      "Goblin": 2073,
      "corner": 2074,
      "notice": 2075,
      "remembered": 2076,
      "Bof": 2077,
      "Dw": 2078,
      "Up": 2079,
      "ahead": 2080,
      "din": 2081,
      "ech": 2082,
      "gain": 2083,
      "hide": 2084,
      "jumped": 2085,
      "later": 2086,
      "mur": 2087,
      "nal": 2088,
      "pen": 2089,
      "pit": 2090,
      "send": 2091,
      "scre": 2092,
      "sket": 2093,
      "sides": 2094,
      "ug": 2095,
      "vast": 2096,
      "third": 2097,
      "ree": 2098,
      "ony": 2099,
      "asleep": 2100,
      "arri": 2101,
      "habit": 2102,
      "leather": 2103,
      "week": 2104,
      "ution": 2105,
      "motion": 2106,
      "onely": 2107,
      "dep": 2108,
      "umbling": 2109,
      "iff": 2110,
      "extra": 2111,
      "fied": 2112,
      "brush": 2113,
      "spent": 2114,
      "yourself": 2115,
      "managed": 2116,
      "thank": 2117,
      "lights": 2118,
      "akes": 2119,
      "perfect": 2120,
      "spec": 2121,
      "hungry": 2122,
      "Mountains": 2123,
      "singing": 2124,
      "tales": 2125,
      "falling": 2126,
      "surpris": 2127,
      "wrong": 2128,
      "hundreds": 2129,
      "interrup": 2130,
      "drawn": 2131,
      "showed": 2132,
      "character": 2133,
      "hours": 2134,
      "rising": 2135,
      "American": 2136,
      "number": 2137,
      "added": 2138,
      "excite": 2139,
      "azement": 2140,
      "fifty": 2141,
      "entrance": 2142,
      "Eagles": 2143,
      "crowd": 2144,
      "Bofur": 2145,
      "Dwalin": 2146,
      "Did": 2147,
      "Ge": 2148,
      "Or": 2149,
      "She": 2150,
      "cal": 2151,
      "dur": 2152,
      "daw": 2153,
      "dared": 2154,
      "east": 2155,
      "fa": 2156,
      "fted": 2157,
      "glow": 2158,
      "ie": 2159,
      "kes": 2160,
      "kno": 2161,
      "list": 2162,
      "ph": 2163,
      "rage": 2164,
      "sang": 2165,
      "tang": 2166,
      "lly": 2167,
      "stro": 2168,
      "stuff": 2169,
      "wear": 2170,
      "wealth": 2171,
      "wicked": 2172,
      "lives": 2173,
      "adv": 2174,
      "uncomfortable": 2175,
      "ries": 2176,
      "rich": 2177,
      "ently": 2178,
      "amazement": 2179,
      "plat": 2180,
      "indic": 2181,
      "anyone": 2182,
      "apping": 2183,
      "bye": 2184,
      "suc": 2185,
      "comrad": 2186,
      "afraid": 2187,
      "disappeared": 2188,
      "throw": 2189,
      "clam": 2190,
      "medi": 2191,
      "Indeed": 2192,
      "flat": 2193,
      "thoughts": 2194,
      "saying": 2195,
      "agged": 2196,
      "surprise": 2197,
      "pony": 2198,
      "scattered": 2199,
      "spot": 2200,
      "entirely": 2201,
      "comfort": 2202,
      "laughter": 2203,
      "vanished": 2204,
      "animals": 2205,
      "natur": 2206,
      "picked": 2207,
      "experience": 2208,
      "Wargs": 2209,
      "complete": 2210,
      "strength": 2211,
      "George": 2212,
      "comrades": 2213,
      "Any": 2214,
      "Bif": 2215,
      "Chapter": 2216,
      "Every": 2217,
      "Long": 2218,
      "Mis": 2219,
      "Oin": 2220,
      "Sure": 2221,
      "Un": 2222,
      "Wald": 2223,
      "Yet": 2224,
      "bat": 2225,
      "ere": 2226,
      "fit": 2227,
      "ian": 2228,
      "mess": 2229,
      "nice": 2230,
      "sum": 2231,
      "wound": 2232,
      "respect": 2233,
      "atten": 2234,
      "toes": 2235,
      "tograph": 2236,
      "weap": 2237,
      "hills": 2238,
      "veget": 2239,
      "nose": 2240,
      "allow": 2241,
      "sole": 2242,
      "saur": 2243,
      "note": 2244,
      "coat": 2245,
      "colo": 2246,
      "neither": 2247,
      "goes": 2248,
      "post": 2249,
      "content": 2250,
      "greater": 2251,
      "bitter": 2252,
      "mention": 2253,
      "knows": 2254,
      "knowledge": 2255,
      "watching": 2256,
      "wooden": 2257,
      "stor": 2258,
      "desire": 2259,
      "wondered": 2260,
      "everything": 2261,
      "clothes": 2262,
      "busy": 2263,
      "distant": 2264,
      "possess": 2265,
      "kenstone": 2266,
      "idden": 2267,
      "cries": 2268,
      "please": 2269,
      "kindly": 2270,
      "questions": 2271,
      "banks": 2272,
      "evidence": 2273,
      "whispered": 2274,
      "queer": 2275,
      "fresh": 2276,
      "leaving": 2277,
      "imagine": 2278,
      "Arkenstone": 2279,
      "catch": 2280,
      "pinn": 2281,
      "trunk": 2282,
      "monstrous": 2283,
      "glimp": 2284,
      "pterodactyl": 2285,
      "photograph": 2286,
      "changed": 2287,
      "excitement": 2288,
      "platform": 2289,
      "Bifur": 2290,
      "Waldron": 2291,
      "An": 2292,
      "Do": 2293,
      "ES": 2294,
      "Es": 2295,
      "LL": 2296,
      "Oh": 2297,
      "TER": 2298,
      "Wood": 2299,
      "bor": 2300,
      "bull": 2301,
      "bund": 2302,
      "fun": 2303,
      "faint": 2304,
      "game": 2305,
      "lu": 2306,
      "mus": 2307,
      "mies": 2308,
      "odon": 2309,
      "pu": 2310,
      "rush": 2311,
      "sand": 2312,
      "sof": 2313,
      "simp": 2314,
      "uation": 2315,
      "xed": 2316,
      "ths": 2317,
      "thir": 2318,
      "thunder": 2319,
      "ancient": 2320,
      "asm": 2321,
      "eding": 2322,
      "ench": 2323,
      "ences": 2324,
      "ists": 2325,
      "arrows": 2326,
      "beat": 2327,
      "ropes": 2328,
      "als": 2329,
      "aded": 2330,
      "terri": 2331,
      "caver": 2332,
      "deli": 2333,
      "cks": 2334,
      "umn": 2335,
      "shone": 2336,
      "lots": 2337,
      "ends": 2338,
      "expl": 2339,
      "common": 2340,
      "spread": 2341,
      "whatever": 2342,
      "craw": 2343,
      "crash": 2344,
      "woke": 2345,
      "aks": 2346,
      "prob": 2347,
      "afterwards": 2348,
      "glade": 2349,
      "aws": 2350,
      "smooth": 2351,
      "stop": 2352,
      "helped": 2353,
      "start": 2354,
      "child": 2355,
      "larger": 2356,
      "Only": 2357,
      "center": 2358,
      "pipe": 2359,
      "fourteen": 2360,
      "pleased": 2361,
      "import": 2362,
      "ublic": 2363,
      "natives": 2364,
      "Also": 2365,
      "companion": 2366,
      "dreams": 2367,
      "leading": 2368,
      "wandering": 2369,
      "beasts": 2370,
      "laughing": 2371,
      "inclined": 2372,
      "noticed": 2373,
      "pinnacle": 2374,
      "Mc": 2375,
      "Po": 2376,
      "PTER": 2377,
      "Whi": 2378,
      "bone": 2379,
      "bones": 2380,
      "cou": 2381,
      "cup": 2382,
      "cts": 2383,
      "dle": 2384,
      "event": 2385,
      "fan": 2386,
      "gather": 2387,
      "mn": 2388,
      "pan": 2389,
      "pair": 2390,
      "public": 2391,
      "rid": 2392,
      "sick": 2393,
      "shel": 2394,
      "tu": 2395,
      "vill": 2396,
      "win": 2397,
      "wis": 2398,
      "yer": 2399,
      "stiff": 2400,
      "beards": 2401,
      "weight": 2402,
      "waste": 2403,
      "search": 2404,
      "hion": 2405,
      "aced": 2406,
      "nois": 2407,
      "uts": 2408,
      "ties": 2409,
      "sage": 2410,
      "oot": 2411,
      "holes": 2412,
      "aming": 2413,
      "boy": 2414,
      "oney": 2415,
      "usual": 2416,
      "ument": 2417,
      "aren": 2418,
      "ific": 2419,
      "apid": 2420,
      "exha": 2421,
      "vens": 2422,
      "comm": 2423,
      "spark": 2424,
      "horror": 2425,
      "thrust": 2426,
      "handed": 2427,
      "waters": 2428,
      "ddy": 2429,
      "desper": 2430,
      "result": 2431,
      "pointing": 2432,
      "azon": 2433,
      "situation": 2434,
      "torch": 2435,
      "astern": 2436,
      "possib": 2437,
      "Thror": 2438,
      "Thrain": 2439,
      "flew": 2440,
      "minutes": 2441,
      "climbing": 2442,
      "evident": 2443,
      "occur": 2444,
      "carefully": 2445,
      "easily": 2446,
      "passages": 2447,
      "barrel": 2448,
      "crossed": 2449,
      "sorry": 2450,
      "frightened": 2451,
      "remarkable": 2452,
      "Ardle": 2453,
      "leaped": 2454,
      "described": 2455,
      "pursu": 2456,
      "trunks": 2457,
      "subject": 2458,
      "teeth": 2459,
      "continu": 2460,
      "CHAPTER": 2461,
      "devil": 2462,
      "absolutely": 2463,
      "ceived": 2464,
      "Amazon": 2465,
      "various": 2466,
      "extraordinary": 2467,
      "perfectly": 2468,
      "surprised": 2469,
      "during": 2470,
      "dawn": 2471,
      "listened": 2472,
      "solemn": 2473,
      "colored": 2474,
      "simply": 2475,
      "McArdle": 2476,
      "!'": 2477,
      "Land": 2478,
      "ON": 2479,
      "bs": 2480,
      "bers": 2481,
      "cast": 2482,
      "dar": 2483,
      "eks": 2484,
      "fas": 2485,
      "fut": 2486,
      "fled": 2487,
      "hidden": 2488,
      "job": 2489,
      "mile": 2490,
      "pain": 2491,
      "ption": 2492,
      "ral": 2493,
      "rab": 2494,
      "rative": 2495,
      "rapid": 2496,
      "tling": 2497,
      "uan": 2498,
      "ude": 2499,
      "vic": 2500,
      "vish": 2501,
      "thus": 2502,
      "inv": 2503,
      "ination": 2504,
      "anger": 2505,
      "resp": 2506,
      "orous": 2507,
      "around": 2508,
      "arrow": 2509,
      "ested": 2510,
      "iting": 2511,
      "hip": 2512,
      "altogether": 2513,
      "hissed": 2514,
      "liz": 2515,
      "ford": 2516,
      "unexpected": 2517,
      "ags": 2518,
      "ilt": 2519,
      "abbed": 2520,
      "posed": 2521,
      "gress": 2522,
      "endous": 2523,
      "exist": 2524,
      "quar": 2525,
      "spur": 2526,
      "immedi": 2527,
      "els": 2528,
      "lightning": 2529,
      "produ": 2530,
      "class": 2531,
      "died": 2532,
      "viol": 2533,
      "shallow": 2534,
      "waving": 2535,
      "calling": 2536,
      "higher": 2537,
      "trying": 2538,
      "mission": 2539,
      "miserable": 2540,
      "smaller": 2541,
      "rent": 2542,
      "Once": 2543,
      "enemies": 2544,
      "eagles": 2545,
      "signs": 2546,
      "conditions": 2547,
      "walk": 2548,
      "walking": 2549,
      "culiar": 2550,
      "report": 2551,
      "narrative": 2552,
      "quietly": 2553,
      "free": 2554,
      "imagined": 2555,
      "swept": 2556,
      "guns": 2557,
      "built": 2558,
      "touch": 2559,
      "piece": 2560,
      "travel": 2561,
      "pulled": 2562,
      "memory": 2563,
      "presence": 2564,
      "sketch": 2565,
      "specim": 2566,
      "Misty": 2567,
      "Surely": 2568,
      "fashion": 2569,
      "rabbit": 2570,
      "Cur": 2571,
      "EN": 2572,
      "OU": 2573,
      "Old": 2574,
      "Pre": 2575,
      "St": 2576,
      "Zoolog": 2577,
      "bac": 2578,
      "ball": 2579,
      "bri": 2580,
      "fly": 2581,
      "fail": 2582,
      "fav": 2583,
      "gates": 2584,
      "la": 2585,
      "lord": 2586,
      "ming": 2587,
      "mass": 2588,
      "mist": 2589,
      "osaur": 2590,
      "pine": 2591,
      "sim": 2592,
      "sens": 2593,
      "tly": 2594,
      "tong": 2595,
      "test": 2596,
      "wing": 2597,
      "year": 2598,
      "inion": 2599,
      "hesit": 2600,
      "inging": 2601,
      "arg": 2602,
      "argu": 2603,
      "haven": 2604,
      "stir": 2605,
      "merely": 2606,
      "wet": 2607,
      "seized": 2608,
      "roll": 2609,
      "acc": 2610,
      "noon": 2611,
      "vering": 2612,
      "forget": 2613,
      "advan": 2614,
      "address": 2615,
      "rifles": 2616,
      "ooking": 2617,
      "cell": 2618,
      "hoard": 2619,
      "usion": 2620,
      "peculiar": 2621,
      "thern": 2622,
      "def": 2623,
      "pol": 2624,
      "blind": 2625,
      "somewhere": 2626,
      "exam": 2627,
      "trid": 2628,
      "canoes": 2629,
      "horse": 2630,
      "yours": 2631,
      "manner": 2632,
      "prep": 2633,
      "opinion": 2634,
      "crown": 2635,
      "cial": 2636,
      "creep": 2637,
      "iguan": 2638,
      "glass": 2639,
      "spears": 2640,
      "Nothing": 2641,
      "cartrid": 2642,
      "hearts": 2643,
      "rocky": 2644,
      "shaking": 2645,
      "effor": 2646,
      "paths": 2647,
      "clearing": 2648,
      "sounded": 2649,
      "waited": 2650,
      "fairly": 2651,
      "drawing": 2652,
      "growing": 2653,
      "risk": 2654,
      "flowers": 2655,
      "volcan": 2656,
      "Goblins": 2657,
      "color": 2658,
      "welve": 2659,
      "tempt": 2660,
      "twice": 2661,
      "dozen": 2662,
      "brushwood": 2663,
      "weapons": 2664,
      "occurred": 2665,
      "future": 2666,
      "iguanodon": 2667,
      "AR": 2668,
      "Br": 2669,
      "Com": 2670,
      "De": 2671,
      "Had": 2672,
      "Look": 2673,
      "Never": 2674,
      "Nature": 2675,
      "Nori": 2676,
      "Oak": 2677,
      "Running": 2678,
      "bas": 2679,
      "bent": 2680,
      "bam": 2681,
      "eight": 2682,
      "emer": 2683,
      "eastern": 2684,
      "ith": 2685,
      "ial": 2686,
      "jud": 2687,
      "kick": 2688,
      "lted": 2689,
      "prof": 2690,
      "puff": 2691,
      "raf": 2692,
      "sen": 2693,
      "snow": 2694,
      "scar": 2695,
      "vain": 2696,
      "wits": 2697,
      "ines": 2698,
      "anx": 2699,
      "anno": 2700,
      "repe": 2701,
      "oned": 2702,
      "asse": 2703,
      "iss": 2704,
      "itude": 2705,
      "stumbled": 2706,
      "wels": 2707,
      "rolling": 2708,
      "acket": 2709,
      "histori": 2710,
      "unt": 2711,
      "agger": 2712,
      "agree": 2713,
      "cep": 2714,
      "hoped": 2715,
      "cop": 2716,
      "ters": 2717,
      "terror": 2718,
      "peace": 2719,
      "gollum": 2720,
      "absur": 2721,
      "shine": 2722,
      "lose": 2723,
      "ender": 2724,
      "ext": 2725,
      "explan": 2726,
      "trud": 2727,
      "temp": 2728,
      "warri": 2729,
      "brows": 2730,
      "space": 2731,
      "----\"": 2732,
      "impress": 2733,
      "aught": 2734,
      "cious": 2735,
      "thrush": 2736,
      "prote": 2737,
      "didn": 2738,
      "engers": 2739,
      "worst": 2740,
      "watched": 2741,
      "dded": 2742,
      "guage": 2743,
      "flames": 2744,
      "useful": 2745,
      "rings": 2746,
      "super": 2747,
      "points": 2748,
      "tical": 2749,
      "stretched": 2750,
      "bush": 2751,
      "march": 2752,
      "dancing": 2753,
      "settled": 2754,
      "satis": 2755,
      "torn": 2756,
      "iously": 2757,
      "distur": 2758,
      "message": 2759,
      "jewels": 2760,
      "exceeding": 2761,
      "stepped": 2762,
      "evil": 2763,
      "eaten": 2764,
      "Wild": 2765,
      "realized": 2766,
      "slopes": 2767,
      "boats": 2768,
      "Already": 2769,
      "Such": 2770,
      "numbers": 2771,
      "carrying": 2772,
      "driven": 2773,
      "twink": 2774,
      "excited": 2775,
      "observed": 2776,
      "swiftly": 2777,
      "language": 2778,
      "eze": 2779,
      "grandfather": 2780,
      "English": 2781,
      "summit": 2782,
      "attention": 2783,
      "photographs": 2784,
      "important": 2785,
      "Poor": 2786,
      "Zoological": 2787,
      "argument": 2788,
      "prepared": 2789,
      "volcanic": 2790,
      "bamboo": 2791,
      "absurd": 2792,
      "Car": 2793,
      "Dur": 2794,
      "Get": 2795,
      "Last": 2796,
      "Other": 2797,
      "Two": 2798,
      "Was": 2799,
      "cil": 2800,
      "dense": 2801,
      "fate": 2802,
      "fring": 2803,
      "glo": 2804,
      "harp": 2805,
      "ired": 2806,
      "ker": 2807,
      "lat": 2808,
      "mal": 2809,
      "mail": 2810,
      "nin": 2811,
      "names": 2812,
      "pay": 2813,
      "pool": 2814,
      "rs": 2815,
      "rat": 2816,
      "ride": 2817,
      "sle": 2818,
      "sack": 2819,
      "sank": 2820,
      "swords": 2821,
      "sending": 2822,
      "twelve": 2823,
      "vag": 2824,
      "wre": 2825,
      "wake": 2826,
      "wine": 2827,
      "thy": 2828,
      "intell": 2829,
      "aning": 2830,
      "returned": 2831,
      "refle": 2832,
      "represent": 2833,
      "erous": 2834,
      "hest": 2835,
      "aside": 2836,
      "ities": 2837,
      "level": 2838,
      "sty": 2839,
      "stit": 2840,
      "stony": 2841,
      "meat": 2842,
      "hield": 2843,
      "rode": 2844,
      "roast": 2845,
      "although": 2846,
      "vers": 2847,
      "lied": 2848,
      "lifted": 2849,
      "tied": 2850,
      "tight": 2851,
      "sav": 2852,
      "enty": 2853,
      "upwards": 2854,
      "hollow": 2855,
      "amped": 2856,
      "moder": 2857,
      "tern": 2858,
      "gems": 2859,
      "butter": 2860,
      "umb": 2861,
      "vesti": 2862,
      "ples": 2863,
      "placed": 2864,
      "anywhere": 2865,
      "trap": 2866,
      "gray": 2867,
      "brown": 2868,
      "backs": 2869,
      "tained": 2870,
      "loose": 2871,
      "oping": 2872,
      "ause": 2873,
      "proved": 2874,
      "worn": 2875,
      "guide": 2876,
      "flung": 2877,
      "begun": 2878,
      "speaking": 2879,
      "vious": 2880,
      "talked": 2881,
      "shores": 2882,
      "steam": 2883,
      "ruddy": 2884,
      "write": 2885,
      "clearly": 2886,
      "joined": 2887,
      "giant": 2888,
      "central": 2889,
      "following": 2890,
      "gged": 2891,
      "enshield": 2892,
      "keeping": 2893,
      "minute": 2894,
      "meanwhile": 2895,
      "directions": 2896,
      "visit": 2897,
      "armour": 2898,
      "returning": 2899,
      "bowed": 2900,
      "whisper": 2901,
      "swamp": 2902,
      "circl": 2903,
      "realize": 2904,
      "finite": 2905,
      "flowed": 2906,
      "raised": 2907,
      "letters": 2908,
      "experiences": 2909,
      "touched": 2910,
      "regard": 2911,
      "bbing": 2912,
      "honor": 2913,
      "burning": 2914,
      "remains": 2915,
      "strugg": 2916,
      "ING": 2917,
      "incident": 2918,
      "portion": 2919,
      "tremendous": 2920,
      "proceedings": 2921,
      "knees": 2922,
      "difficulty": 2923,
      "scrambled": 2924,
      "success": 2925,
      "Under": 2926,
      "vegetation": 2927,
      "exhausted": 2928,
      "continued": 2929,
      "Oakenshield": 2930,
      "Carrock": 2931,
      ",'": 2932,
      "AN": 2933,
      "Down": 2934,
      "Eu": 2935,
      "Lo": 2936,
      "Lonely": 2937,
      "Man": 2938,
      "OF": 2939,
      "Ori": 2940,
      "Pro": 2941,
      "Sh": 2942,
      "Stre": 2943,
      "Te": 2944,
      "bing": 2945,
      "bay": 2946,
      "bough": 2947,
      "cro": 2948,
      "dwell": 2949,
      "ec": 2950,
      "farewell": 2951,
      "gn": 2952,
      "gard": 2953,
      "gest": 2954,
      "ia": 2955,
      "jung": 2956,
      "ky": 2957,
      "lab": 2958,
      "lair": 2959,
      "mood": 2960,
      "mmer": 2961,
      "makes": 2962,
      "phe": 2963,
      "pill": 2964,
      "professor": 2965,
      "rum": 2966,
      "sad": 2967,
      "sca": 2968,
      "tch": 2969,
      "tons": 2970,
      "thread": 2971,
      "received": 2972,
      "onwards": 2973,
      "ening": 2974,
      "envelo": 2975,
      "arched": 2976,
      "itable": 2977,
      "haul": 2978,
      "halt": 2979,
      "belong": 2980,
      "belt": 2981,
      "weak": 2982,
      "ids": 2983,
      "acing": 2984,
      "aloud": 2985,
      "chuck": 2986,
      "limit": 2987,
      "unable": 2988,
      "agreed": 2989,
      "bore": 2990,
      "bother": 2991,
      "usually": 2992,
      "nel": 2993,
      "necess": 2994,
      "neigh": 2995,
      "definite": 2996,
      "aste": 2997,
      "couldn": 2998,
      "dom": 2999,
      "plung": 3000,
      "plenty": 3001,
      "exactly": 3002,
      "ets": 3003,
      "grumbling": 3004,
      "conce": 3005,
      "spare": 3006,
      "prepar": 3007,
      "itten": 3008,
      "blew": 3009,
      "cies": 3010,
      "clay": 3011,
      "wherever": 3012,
      "underground": 3013,
      "understood": 3014,
      "type": 3015,
      "farther": 3016,
      "awa": 3017,
      "specially": 3018,
      "die": 3019,
      "hunting": 3020,
      "clever": 3021,
      "prac": 3022,
      "agging": 3023,
      "finding": 3024,
      "supp": 3025,
      "tically": 3026,
      "shaped": 3027,
      "rivers": 3028,
      "effect": 3029,
      "rested": 3030,
      "passing": 3031,
      "object": 3032,
      "deeper": 3033,
      "survi": 3034,
      "broo": 3035,
      "setting": 3036,
      "monster": 3037,
      "tors": 3038,
      "curved": 3039,
      "current": 3040,
      "wondering": 3041,
      "spoken": 3042,
      "direct": 3043,
      "ensive": 3044,
      "tunnels": 3045,
      "formation": 3046,
      "needed": 3047,
      "autumn": 3048,
      "swung": 3049,
      "movement": 3050,
      "swir": 3051,
      "lucky": 3052,
      "splend": 3053,
      "colleag": 3054,
      "interested": 3055,
      "reasonable": 3056,
      "packed": 3057,
      "orders": 3058,
      "famous": 3059,
      "fifteen": 3060,
      "welcome": 3061,
      "temper": 3062,
      "promise": 3063,
      "descend": 3064,
      "approach": 3065,
      "Dragon": 3066,
      "gazed": 3067,
      "gazing": 3068,
      "played": 3069,
      "curious": 3070,
      "suspic": 3071,
      "convin": 3072,
      "foolish": 3073,
      "hurrying": 3074,
      "destro": 3075,
      "suggested": 3076,
      "penet": 3077,
      "tangled": 3078,
      "natural": 3079,
      "messengers": 3080,
      "glimpse": 3081,
      "puzz": 3082,
      "probably": 3083,
      "desperate": 3084,
      "immediately": 3085,
      "Press": 3086,
      "polite": 3087,
      "cartridges": 3088,
      "effort": 3089,
      "explanation": 3090,
      "slept": 3091,
      "vague": 3092,
      "stitute": 3093,
      "modern": 3094,
      "Europe": 3095,
      "envelope": 3096,
      "Are": 3097,
      "Can": 3098,
      "Dwar": 3099,
      "Each": 3100,
      "Fin": 3101,
      "Gir": 3102,
      "Ha": 3103,
      "Hall": 3104,
      "Looking": 3105,
      "Men": 3106,
      "Pe": 3107,
      "Par": 3108,
      "Pers": 3109,
      "ST": 3110,
      "WOR": 3111,
      "aver": 3112,
      "aven": 3113,
      "band": 3114,
      "base": 3115,
      "cunning": 3116,
      "dun": 3117,
      "dign": 3118,
      "fro": 3119,
      "fond": 3120,
      "ga": 3121,
      "gen": 3122,
      "har": 3123,
      "ient": 3124,
      "jacket": 3125,
      "lou": 3126,
      "lur": 3127,
      "lamp": 3128,
      "mach": 3129,
      "push": 3130,
      "piled": 3131,
      "ray": 3132,
      "rust": 3133,
      "rank": 3134,
      "tes": 3135,
      "vate": 3136,
      "winter": 3137,
      "thor": 3138,
      "thered": 3139,
      "reck": 3140,
      "reward": 3141,
      "attempt": 3142,
      "heels": 3143,
      "asp": 3144,
      "ased": 3145,
      "encoun": 3146,
      "offi": 3147,
      "ism": 3148,
      "halted": 3149,
      "ley": 3150,
      "stair": 3151,
      "mez": 3152,
      "mere": 3153,
      "bears": 3154,
      "seated": 3155,
      "hig": 3156,
      "action": 3157,
      "chan": 3158,
      "uttered": 3159,
      "limb": 3160,
      "advice": 3161,
      "unfortun": 3162,
      "unpleasant": 3163,
      "unhappy": 3164,
      "entered": 3165,
      "keys": 3166,
      "hot": 3167,
      "ours": 3168,
      "moving": 3169,
      "feather": 3170,
      "deb": 3171,
      "deer": 3172,
      "deter": 3173,
      "depart": 3174,
      "demonstr": 3175,
      "develo": 3176,
      "ums": 3177,
      "foli": 3178,
      "pot": 3179,
      "pois": 3180,
      "ified": 3181,
      "blan": 3182,
      "bles": 3183,
      "blow": 3184,
      "bless": 3185,
      "somewhat": 3186,
      "app": 3187,
      "explain": 3188,
      "ety": 3189,
      "fixed": 3190,
      "grou": 3191,
      "grabbed": 3192,
      "suf": 3193,
      "sured": 3194,
      "horses": 3195,
      "aff": 3196,
      "prehistori": 3197,
      "aud": 3198,
      "women": 3199,
      "thrown": 3200,
      "peril": 3201,
      "prove": 3202,
      "asser": 3203,
      "afternoon": 3204,
      "cheer": 3205,
      "ddled": 3206,
      "howling": 3207,
      "flash": 3208,
      "smiling": 3209,
      "dies": 3210,
      "hunt": 3211,
      "Gomez": 3212,
      "proud": 3213,
      "actual": 3214,
      "everybody": 3215,
      "clock": 3216,
      "cloak": 3217,
      "singular": 3218,
      "starting": 3219,
      "marve": 3220,
      "skins": 3221,
      "skull": 3222,
      "missed": 3223,
      "scene": 3224,
      "wrapped": 3225,
      "friendship": 3226,
      "doubted": 3227,
      "Something": 3228,
      "partly": 3229,
      "tiny": 3230,
      "eagle": 3231,
      "visible": 3232,
      "impat": 3233,
      "safety": 3234,
      "drove": 3235,
      "careful": 3236,
      "swoo": 3237,
      "groaned": 3238,
      "sorts": 3239,
      "frightful": 3240,
      "wandered": 3241,
      "sweep": 3242,
      "twisted": 3243,
      "occasional": 3244,
      "III": 3245,
      "pieces": 3246,
      "throat": 3247,
      "Most": 3248,
      "corresp": 3249,
      "palm": 3250,
      "shrill": 3251,
      "Quick": 3252,
      "finger": 3253,
      "fingers": 3254,
      "marks": 3255,
      "spirit": 3256,
      "eagerly": 3257,
      "Exactly": 3258,
      "reeds": 3259,
      "particularly": 3260,
      "listening": 3261,
      "tails": 3262,
      "clouds": 3263,
      "collection": 3264,
      "hideous": 3265,
      "advance": 3266,
      "music": 3267,
      "caverns": 3268,
      "explained": 3269,
      "crawling": 3270,
      "couple": 3271,
      "gathering": 3272,
      "possibly": 3273,
      "favor": 3274,
      "advanced": 3275,
      "wretched": 3276,
      "intellig": 3277,
      "vestig": 3278,
      "boughs": 3279,
      "jungle": 3280,
      "professors": 3281,
      "brook": 3282,
      "colleague": 3283,
      "Finally": 3284,
      "louder": 3285,
      "prehistoric": 3286,
      "correspond": 3287,
      ",--": 3288,
      "Again": 3289,
      "Bl": 3290,
      "Bes": 3291,
      "Dear": 3292,
      "Elves": 3293,
      "First": 3294,
      "Front": 3295,
      "Farewell": 3296,
      "Li": 3297,
      "Luck": 3298,
      "RE": 3299,
      "Water": 3300,
      "aves": 3301,
      "avo": 3302,
      "ben": 3303,
      "bare": 3304,
      "cum": 3305,
      "cook": 3306,
      "dut": 3307,
      "dam": 3308,
      "emb": 3309,
      "fir": 3310,
      "fru": 3311,
      "flies": 3312,
      "gall": 3313,
      "hiding": 3314,
      "ier": 3315,
      "ience": 3316,
      "mined": 3317,
      "ners": 3318,
      "oth": 3319,
      "profess": 3320,
      "rated": 3321,
      "riddle": 3322,
      "ske": 3323,
      "shes": 3324,
      "taste": 3325,
      "ues": 3326,
      "ying": 3327,
      "thorn": 3328,
      "inst": 3329,
      "inse": 3330,
      "instead": 3331,
      "anti": 3332,
      "reve": 3333,
      "ero": 3334,
      "ascent": 3335,
      "assured": 3336,
      "ordered": 3337,
      "isn": 3338,
      "arr": 3339,
      "sters": 3340,
      "bell": 3341,
      "bewild": 3342,
      "beating": 3343,
      "weeks": 3344,
      "sea": 3345,
      "seld": 3346,
      "separ": 3347,
      "active": 3348,
      "alt": 3349,
      "ality": 3350,
      "history": 3351,
      "utter": 3352,
      "irth": 3353,
      "force": 3354,
      "forty": 3355,
      "ading": 3356,
      "une": 3357,
      "unch": 3358,
      "unted": 3359,
      "rily": 3360,
      "tick": 3361,
      "saved": 3362,
      "hopes": 3363,
      "coal": 3364,
      "mother": 3365,
      "ushes": 3366,
      "whir": 3367,
      "negro": 3368,
      "pet": 3369,
      "fee": 3370,
      "hated": 3371,
      "hatred": 3372,
      "umping": 3373,
      "aston": 3374,
      "pop": 3375,
      "anyway": 3376,
      "exact": 3377,
      "Its": 3378,
      "field": 3379,
      "oused": 3380,
      "ults": 3381,
      "downwards": 3382,
      "warning": 3383,
      "grown": 3384,
      "grumbled": 3385,
      "brutes": 3386,
      "concl": 3387,
      "consci": 3388,
      "constant": 3389,
      "willing": 3390,
      "commit": 3391,
      "treat": 3392,
      "otherwise": 3393,
      "affair": 3394,
      "elvish": 3395,
      "drinking": 3396,
      "dragged": 3397,
      "mering": 3398,
      "wore": 3399,
      "wolf": 3400,
      "woman": 3401,
      "disap": 3402,
      "proble": 3403,
      "provis": 3404,
      "progress": 3405,
      "assure": 3406,
      "offer": 3407,
      "offensive": 3408,
      "cheering": 3409,
      "Institute": 3410,
      "glor": 3411,
      "rounded": 3412,
      "flame": 3413,
      "ishing": 3414,
      "speed": 3415,
      "spear": 3416,
      "speech": 3417,
      "special": 3418,
      "clean": 3419,
      "resc": 3420,
      "reser": 3421,
      "rescu": 3422,
      "pra": 3423,
      "hearing": 3424,
      "waved": 3425,
      "waist": 3426,
      "closer": 3427,
      "azed": 3428,
      "azing": 3429,
      "threat": 3430,
      "falls": 3431,
      "marshes": 3432,
      "looks": 3433,
      "monsters": 3434,
      "runes": 3435,
      "sunshine": 3436,
      "rude": 3437,
      "huddled": 3438,
      "wrath": 3439,
      "writing": 3440,
      "Though": 3441,
      "knives": 3442,
      "giants": 3443,
      "pier": 3444,
      "iddles": 3445,
      "trotted": 3446,
      "interview": 3447,
      "vision": 3448,
      "bigger": 3449,
      "sheet": 3450,
      "yell": 3451,
      "repti": 3452,
      "shouting": 3453,
      "chosen": 3454,
      "vants": 3455,
      "chairman": 3456,
      "splash": 3457,
      "doesn": 3458,
      "bearing": 3459,
      "leader": 3460,
      "eyebrows": 3461,
      "interesting": 3462,
      "picking": 3463,
      "remarks": 3464,
      "describe": 3465,
      "shadowed": 3466,
      "midnight": 3467,
      "patches": 3468,
      "captain": 3469,
      "eleph": 3470,
      "famili": 3471,
      "observ": 3472,
      "explored": 3473,
      "More": 3474,
      "garoth": 3475,
      "promised": 3476,
      "rooms": 3477,
      "ascended": 3478,
      "students": 3479,
      "expression": 3480,
      "blocked": 3481,
      "soul": 3482,
      "lecturer": 3483,
      "Esgaroth": 3484,
      "lux": 3485,
      "thirteen": 3486,
      "While": 3487,
      "existence": 3488,
      "specimen": 3489,
      "raft": 3490,
      "annoyed": 3491,
      "repeated": 3492,
      "warriors": 3493,
      "exceedingly": 3494,
      "Durin": 3495,
      "savage": 3496,
      "struggle": 3497,
      "Street": 3498,
      "plunged": 3499,
      "destroyed": 3500,
      "Dwarves": 3501,
      "Girion": 3502,
      "Para": 3503,
      "dunge": 3504,
      "dignity": 3505,
      "stairs": 3506,
      "highest": 3507,
      "duty": 3508,
      "seldom": 3509,
      "provisions": 3510,
      "rescued": 3511,
      "Ab": 3512,
      "Bur": 3513,
      "Back": 3514,
      "Con": 3515,
      "Give": 3516,
      "Ho": 3517,
      "Ir": 3518,
      "ILL": 3519,
      "Many": 3520,
      "None": 3521,
      "PR": 3522,
      "Pres": 3523,
      "Se": 3524,
      "Sir": 3525,
      "Since": 3526,
      "aj": 3527,
      "ba": 3528,
      "ban": 3529,
      "bould": 3530,
      "bows": 3531,
      "cous": 3532,
      "cul": 3533,
      "equ": 3534,
      "flight": 3535,
      "furi": 3536,
      "gy": 3537,
      "gan": 3538,
      "gif": 3539,
      "ggs": 3540,
      "gained": 3541,
      "hook": 3542,
      "io": 3543,
      "iasm": 3544,
      "jer": 3545,
      "len": 3546,
      "lonely": 3547,
      "mi": 3548,
      "money": 3549,
      "na": 3550,
      "nas": 3551,
      "nes": 3552,
      "nest": 3553,
      "named": 3554,
      "nific": 3555,
      "oon": 3556,
      "ocious": 3557,
      "pant": 3558,
      "page": 3559,
      "pity": 3560,
      "task": 3561,
      "uel": 3562,
      "vity": 3563,
      "wes": 3564,
      "wagging": 3565,
      "yel": 3566,
      "information": 3567,
      "recover": 3568,
      "atives": 3569,
      "enthus": 3570,
      "arked": 3571,
      "ham": 3572,
      "hailed": 3573,
      "leaned": 3574,
      "stage": 3575,
      "staff": 3576,
      "bells": 3577,
      "owl": 3578,
      "seven": 3579,
      "wield": 3580,
      "acy": 3581,
      "acious": 3582,
      "access": 3583,
      "lice": 3584,
      "irre": 3585,
      "ays": 3586,
      "ric": 3587,
      "soci": 3588,
      "oose": 3589,
      "enter": 3590,
      "upper": 3591,
      "uproar": 3592,
      "amm": 3593,
      "bold": 3594,
      "bodies": 3595,
      "peering": 3596,
      "peaks": 3597,
      "caused": 3598,
      "aby": 3599,
      "ables": 3600,
      "butler": 3601,
      "buttons": 3602,
      "dell": 3603,
      "decl": 3604,
      "cken": 3605,
      "foes": 3606,
      "shoo": 3607,
      "shown": 3608,
      "posing": 3609,
      "police": 3610,
      "someone": 3611,
      "somehow": 3612,
      "appreci": 3613,
      "quest": 3614,
      "wouldn": 3615,
      "canes": 3616,
      "bru": 3617,
      "brist": 3618,
      "brute": 3619,
      "hedge": 3620,
      "conven": 3621,
      "backwards": 3622,
      "longed": 3623,
      "tress": 3624,
      "immen": 3625,
      "aughter": 3626,
      "string": 3627,
      "straw": 3628,
      "disappear": 3629,
      "discover": 3630,
      "handker": 3631,
      "cting": 3632,
      "ignor": 3633,
      "parted": 3634,
      "mostly": 3635,
      "glance": 3636,
      "Whatever": 3637,
      "doorstep": 3638,
      "stole": 3639,
      "stomach": 3640,
      "hunted": 3641,
      "cleared": 3642,
      "deser": 3643,
      "despair": 3644,
      "breeze": 3645,
      "council": 3646,
      "pride": 3647,
      "remind": 3648,
      "ctions": 3649,
      "staring": 3650,
      "putting": 3651,
      "shock": 3652,
      "deeply": 3653,
      "brother": 3654,
      "mater": 3655,
      "missing": 3656,
      "telling": 3657,
      "ruined": 3658,
      "scut": 3659,
      "wrought": 3660,
      "written": 3661,
      "fastened": 3662,
      "join": 3663,
      "giving": 3664,
      "dangers": 3665,
      "hopeless": 3666,
      "moonlight": 3667,
      "floated": 3668,
      "holding": 3669,
      "snapped": 3670,
      "strongly": 3671,
      "drooping": 3672,
      "repor": 3673,
      "chart": 3674,
      "umph": 3675,
      "umps": 3676,
      "sloping": 3677,
      "scrat": 3678,
      "final": 3679,
      "finally": 3680,
      "guarded": 3681,
      "shield": 3682,
      "confidence": 3683,
      "hairy": 3684,
      "leaping": 3685,
      "hoods": 3686,
      "learn": 3687,
      "ferocious": 3688,
      "traver": 3689,
      "figures": 3690,
      "gloomy": 3691,
      "fighting": 3692,
      "claimed": 3693,
      "burned": 3694,
      "faced": 3695,
      "glimmer": 3696,
      "palace": 3697,
      "spirits": 3698,
      "pterodactyls": 3699,
      "heavi": 3700,
      "heavens": 3701,
      "study": 3702,
      "steadily": 3703,
      "gentleman": 3704,
      "mutton": 3705,
      "flesh": 3706,
      "decided": 3707,
      "England": 3708,
      "haste": 3709,
      "difficulties": 3710,
      "pocketses": 3711,
      "dinosaur": 3712,
      "arrived": 3713,
      "leathery": 3714,
      "faith": 3715,
      "respectable": 3716,
      "storm": 3717,
      "bundle": 3718,
      "bundles": 3719,
      "funny": 3720,
      "soft": 3721,
      "enchanted": 3722,
      "terrific": 3723,
      "children": 3724,
      "fourteenth": 3725,
      "sparks": 3726,
      "senses": 3727,
      "stirred": 3728,
      "emerged": 3729,
      "puffing": 3730,
      "anxious": 3731,
      "impression": 3732,
      "fringe": 3733,
      "harps": 3734,
      "threads": 3735,
      "necessary": 3736,
      "splendid": 3737,
      "People": 3738,
      "Person": 3739,
      "foliage": 3740,
      "group": 3741,
      "swooped": 3742,
      "conscious": 3743,
      "problem": 3744,
      "rescue": 3745,
      "luxuri": 3746,
      "Irish": 3747,
      "enthusiasm": 3748,
      "immense": 3749,
      "handkerchief": 3750,
      "'.": 3751,
      ");": 3752,
      "Cl": 3753,
      "Care": 3754,
      "Far": 3755,
      "Gaz": 3756,
      "House": 3757,
      "June": 3758,
      "Le": 3759,
      "Me": 3760,
      "Thi": 3761,
      "Wor": 3762,
      "XV": 3763,
      "apo": 3764,
      "aos": 3765,
      "bal": 3766,
      "bul": 3767,
      "bite": 3768,
      "bread": 3769,
      "bagg": 3770,
      "bbed": 3771,
      "bags": 3772,
      "cred": 3773,
      "cong": 3774,
      "cure": 3775,
      "due": 3776,
      "fil": 3777,
      "ffl": 3778,
      "hid": 3779,
      "hous": 3780,
      "huts": 3781,
      "iv": 3782,
      "ien": 3783,
      "iance": 3784,
      "lam": 3785,
      "lts": 3786,
      "link": 3787,
      "mbran": 3788,
      "nuts": 3789,
      "oak": 3790,
      "pace": 3791,
      "pink": 3792,
      "piles": 3793,
      "rise": 3794,
      "rider": 3795,
      "sin": 3796,
      "snor": 3797,
      "tles": 3798,
      "tub": 3799,
      "uc": 3800,
      "wn": 3801,
      "wri": 3802,
      "zoolog": 3803,
      "‘‘": 3804,
      "thi": 3805,
      "thirst": 3806,
      "inj": 3807,
      "inous": 3808,
      "inning": 3809,
      "intered": 3810,
      "investig": 3811,
      "antic": 3812,
      "rer": 3813,
      "reco": 3814,
      "oured": 3815,
      "onder": 3816,
      "astic": 3817,
      "ingen": 3818,
      "oration": 3819,
      "llous": 3820,
      "ising": 3821,
      "itish": 3822,
      "meal": 3823,
      "membran": 3824,
      "bee": 3825,
      "wasn": 3826,
      "sel": 3827,
      "seas": 3828,
      "idable": 3829,
      "wife": 3830,
      "acid": 3831,
      "accoun": 3832,
      "acity": 3833,
      "accord": 3834,
      "nodded": 3835,
      "alarm": 3836,
      "chasm": 3837,
      "lian": 3838,
      "lief": 3839,
      "forwards": 3840,
      "forms": 3841,
      "forced": 3842,
      "rip": 3843,
      "sold": 3844,
      "tip": 3845,
      "ools": 3846,
      "boiling": 3847,
      "fered": 3848,
      "fetch": 3849,
      "ardon": 3850,
      "capt": 3851,
      "caution": 3852,
      "myst": 3853,
      "ongs": 3854,
      "det": 3855,
      "devo": 3856,
      "delay": 3857,
      "decent": 3858,
      "umble": 3859,
      "fold": 3860,
      "shru": 3861,
      "shud": 3862,
      "loved": 3863,
      "ify": 3864,
      "dog": 3865,
      "apart": 3866,
      "ette": 3867,
      "trans": 3868,
      "seeking": 3869,
      "quaint": 3870,
      "tea": 3871,
      "tel": 3872,
      "venge": 3873,
      "warned": 3874,
      "cant": 3875,
      "illed": 3876,
      "intoler": 3877,
      "commotion": 3878,
      "spy": 3879,
      "sport": 3880,
      "crit": 3881,
      "crushed": 3882,
      "antly": 3883,
      "civi": 3884,
      "cigar": 3885,
      "thanks": 3886,
      "perched": 3887,
      "cles": 3888,
      "menacing": 3889,
      "goods": 3890,
      "goodness": 3891,
      "worked": 3892,
      "knowing": 3893,
      "check": 3894,
      "cheered": 3895,
      "howl": 3896,
      "Professors": 3897,
      "smiled": 3898,
      "smashed": 3899,
      "angle": 3900,
      "store": 3901,
      "vile": 3902,
      "hobbits": 3903,
      "useless": 3904,
      "breast": 3905,
      "breaking": 3906,
      "hearted": 3907,
      "ample": 3908,
      "everyone": 3909,
      "sooner": 3910,
      "llowing": 3911,
      "Behind": 3912,
      "effe": 3913,
      "serv": 3914,
      "serve": 3915,
      "serious": 3916,
      "servants": 3917,
      "rowed": 3918,
      "dangling": 3919,
      "slung": 3920,
      "cursing": 3921,
      "cursed": 3922,
      "sunlight": 3923,
      "wonders": 3924,
      "chamber": 3925,
      "enemy": 3926,
      "Thank": 3927,
      "onsense": 3928,
      "window": 3929,
      "Sometimes": 3930,
      "dying": 3931,
      "quicker": 3932,
      "hurt": 3933,
      "humor": 3934,
      "heroes": 3935,
      "formidable": 3936,
      "signal": 3937,
      "tribut": 3938,
      "triumph": 3939,
      "safely": 3940,
      "fearful": 3941,
      "solid": 3942,
      "yelled": 3943,
      "whistle": 3944,
      "presently": 3945,
      "slip": 3946,
      "replied": 3947,
      "growth": 3948,
      "growled": 3949,
      "reasons": 3950,
      "finished": 3951,
      "splintered": 3952,
      "dreamed": 3953,
      "grip": 3954,
      "imagination": 3955,
      "shivering": 3956,
      "confess": 3957,
      "confusion": 3958,
      "crying": 3959,
      "private": 3960,
      "difference": 3961,
      "engaged": 3962,
      "grassy": 3963,
      "packs": 3964,
      "description": 3965,
      "powers": 3966,
      "midsummer": 3967,
      "patch": 3968,
      "capable": 3969,
      "gleaming": 3970,
      "family": 3971,
      "tonight": 3972,
      "regular": 3973,
      "sticking": 3974,
      "worthy": 3975,
      "facts": 3976,
      "shrie": 3977,
      "Quite": 3978,
      "refused": 3979,
      "roaring": 3980,
      "tracks": 3981,
      "incred": 3982,
      "descended": 3983,
      "Really": 3984,
      "echoed": 3985,
      "echoes": 3986,
      "lines": 3987,
      "squat": 3988,
      "suspe": 3989,
      "statement": 3990,
      "delighted": 3991,
      "discussed": 3992,
      "habits": 3993,
      "motionless": 3994,
      "interrupted": 3995,
      "throwing": 3996,
      "comfortably": 3997,
      "naturally": 3998,
      "fitted": 3999,
      "contents": 4000,
      "mentioned": 4001,
      "ESS": 4002,
      "rushing": 4003,
      "thirty": 4004,
      "events": 4005,
      "fancy": 4006,
      "shelter": 4007,
      "village": 4008,
      "noises": 4009,
      "arently": 4010,
      "command": 4011,
      "Curse": 4012,
      "balloon": 4013,
      "failed": 4014,
      "tongue": 4015,
      "cellars": 4016,
      "Others": 4017,
      "circling": 4018,
      "Manaos": 4019,
      "garden": 4020,
      "neighb": 4021,
      "convinced": 4022,
      "European": 4023,
      "encountered": 4024,
      "unfortunate": 4025,
      "determined": 4026,
      "blankets": 4027,
      "marvellous": 4028,
      "profession": 4029,
      "popular": 4030,
      "familiar": 4031,
      "boulders": 4032,
      "nassty": 4033,
      "western": 4034,
      "Personally": 4035,
      "Gazette": 4036,
      "civiliz": 4037,
      "?'": 4038,
      "Aust": 4039,
      "Dar": 4040,
      "Ed": 4041,
      "Fort": 4042,
      "Hen": 4043,
      "Illing": 4044,
      "Mac": 4045,
      "Mori": 4046,
      "Raven": 4047,
      "Sha": 4048,
      "Sci": 4049,
      "Tro": 4050,
      "Tho": 4051,
      "Take": 4052,
      "Tarp": 4053,
      "Wed": 4054,
      "born": 4055,
      "bidd": 4056,
      "bumped": 4057,
      "borders": 4058,
      "birth": 4059,
      "cise": 4060,
      "dus": 4061,
      "date": 4062,
      "dull": 4063,
      "dining": 4064,
      "eped": 4065,
      "fli": 4066,
      "faded": 4067,
      "gur": 4068,
      "gap": 4069,
      "gig": 4070,
      "hy": 4071,
      "honey": 4072,
      "ild": 4073,
      "ife": 4074,
      "itor": 4075,
      "ju": 4076,
      "jump": 4077,
      "lid": 4078,
      "lest": 4079,
      "moun": 4080,
      "mare": 4081,
      "male": 4082,
      "ot": 4083,
      "pany": 4084,
      "pment": 4085,
      "pig": 4086,
      "pice": 4087,
      "ratt": 4088,
      "sar": 4089,
      "sac": 4090,
      "shat": 4091,
      "shim": 4092,
      "swar": 4093,
      "scan": 4094,
      "site": 4095,
      "swell": 4096,
      "scep": 4097,
      "tid": 4098,
      "tting": 4099,
      "tact": 4100,
      "tattered": 4101,
      "uous": 4102,
      "uffl": 4103,
      "wed": 4104,
      "wid": 4105,
      "thod": 4106,
      "thumb": 4107,
      "thed": 4108,
      "inal": 4109,
      "inten": 4110,
      "inches": 4111,
      "inner": 4112,
      "infer": 4113,
      "inhabit": 4114,
      "invisible": 4115,
      "anced": 4116,
      "reput": 4117,
      "recent": 4118,
      "resol": 4119,
      "record": 4120,
      "retreat": 4121,
      "anda": 4122,
      "ator": 4123,
      "atmo": 4124,
      "atic": 4125,
      "attemp": 4126,
      "ashes": 4127,
      "ency": 4128,
      "tobac": 4129,
      "ingly": 4130,
      "oring": 4131,
      "orig": 4132,
      "organ": 4133,
      "llen": 4134,
      "llows": 4135,
      "issu": 4136,
      "isol": 4137,
      "leaning": 4138,
      "stared": 4139,
      "stamped": 4140,
      "mered": 4141,
      "method": 4142,
      "beak": 4143,
      "weather": 4144,
      "webs": 4145,
      "seat": 4146,
      "seve": 4147,
      "sequ": 4148,
      "ache": 4149,
      "alo": 4150,
      "alter": 4151,
      "chin": 4152,
      "hiss": 4153,
      "lim": 4154,
      "lips": 4155,
      "iron": 4156,
      "tie": 4157,
      "tivity": 4158,
      "sake": 4159,
      "upset": 4160,
      "upuri": 4161,
      "cept": 4162,
      "hosp": 4163,
      "urass": 4164,
      "ama": 4165,
      "amend": 4166,
      "bobbing": 4167,
      "ility": 4168,
      "terms": 4169,
      "tercop": 4170,
      "peep": 4171,
      "fever": 4172,
      "cake": 4173,
      "cakes": 4174,
      "abl": 4175,
      "abs": 4176,
      "myster": 4177,
      "owned": 4178,
      "shoot": 4179,
      "loss": 4180,
      "pots": 4181,
      "somebody": 4182,
      "pled": 4183,
      "plunder": 4184,
      "plause": 4185,
      "greet": 4186,
      "extre": 4187,
      "trac": 4188,
      "trail": 4189,
      "traces": 4190,
      "ulous": 4191,
      "wars": 4192,
      "grat": 4193,
      "gras": 4194,
      "illy": 4195,
      "convers": 4196,
      "tools": 4197,
      "spend": 4198,
      "sphere": 4199,
      "wholes": 4200,
      "manage": 4201,
      "mantel": 4202,
      "prevent": 4203,
      "opport": 4204,
      "stranger": 4205,
      "lowest": 4206,
      "ational": 4207,
      "proof": 4208,
      "propose": 4209,
      "process": 4210,
      "protrud": 4211,
      "club": 4212,
      "ctric": 4213,
      "mbers": 4214,
      "chen": 4215,
      "dding": 4216,
      "glared": 4217,
      "awful": 4218,
      "flu": 4219,
      "flood": 4220,
      "says": 4221,
      "fellows": 4222,
      "aching": 4223,
      "carni": 4224,
      "results": 4225,
      "ringing": 4226,
      "prin": 4227,
      "friendly": 4228,
      "everywhere": 4229,
      "ventured": 4230,
      "shaken": 4231,
      "remarked": 4232,
      "stret": 4233,
      "stands": 4234,
      "obvious": 4235,
      "marsh": 4236,
      "steal": 4237,
      "steel": 4238,
      "slain": 4239,
      "slum": 4240,
      "Attercop": 4241,
      "rung": 4242,
      "stooped": 4243,
      "mischief": 4244,
      "sung": 4245,
      "ruin": 4246,
      "uded": 4247,
      "uding": 4248,
      "sounds": 4249,
      "kettle": 4250,
      "knife": 4251,
      "mitive": 4252,
      "bargain": 4253,
      "valleys": 4254,
      "humorous": 4255,
      "tinted": 4256,
      "omely": 4257,
      "snap": 4258,
      "meaning": 4259,
      "besides": 4260,
      "pressed": 4261,
      "pressing": 4262,
      "precipice": 4263,
      "matters": 4264,
      "journal": 4265,
      "eating": 4266,
      "wildly": 4267,
      "yells": 4268,
      "bowls": 4269,
      "whistling": 4270,
      "movements": 4271,
      "pical": 4272,
      "charge": 4273,
      "charged": 4274,
      "chairs": 4275,
      "plains": 4276,
      "flower": 4277,
      "magnific": 4278,
      "smoking": 4279,
      "thickly": 4280,
      "energy": 4281,
      "raven": 4282,
      "ravens": 4283,
      "ship": 4284,
      "confused": 4285,
      "primitive": 4286,
      "closely": 4287,
      "dreadfully": 4288,
      "catching": 4289,
      "cutting": 4290,
      "drip": 4291,
      "value": 4292,
      "packages": 4293,
      "leapt": 4294,
      "views": 4295,
      "purpose": 4296,
      "truly": 4297,
      "build": 4298,
      "midst": 4299,
      "gleamed": 4300,
      "boots": 4301,
      "boomed": 4302,
      "eleven": 4303,
      "electric": 4304,
      "occasionally": 4305,
      "sticks": 4306,
      "honour": 4307,
      "radiance": 4308,
      "stayed": 4309,
      "shriek": 4310,
      "refu": 4311,
      "masters": 4312,
      "legend": 4313,
      "roots": 4314,
      "fortunately": 4315,
      "grimly": 4316,
      "ezed": 4317,
      "twilight": 4318,
      "gentlemen": 4319,
      "axe": 4320,
      "axes": 4321,
      "squeaked": 4322,
      "breeds": 4323,
      "curios": 4324,
      "powerful": 4325,
      "proceeded": 4326,
      "hastened": 4327,
      "southern": 4328,
      "discussing": 4329,
      "scramble": 4330,
      "dinner": 4331,
      "screamed": 4332,
      "depths": 4333,
      "fault": 4334,
      "knocked": 4335,
      "knocking": 4336,
      "tangle": 4337,
      "indications": 4338,
      "wounded": 4339,
      "allowed": 4340,
      "possessed": 4341,
      "terrified": 4342,
      "cavern": 4343,
      "wisdom": 4344,
      "daring": 4345,
      "rapidly": 4346,
      "invited": 4347,
      "violent": 4348,
      "violence": 4349,
      "travelers": 4350,
      "Curupuri": 4351,
      "bacon": 4352,
      "hesitated": 4353,
      "argue": 4354,
      "arguing": 4355,
      "accident": 4356,
      "iguanodons": 4357,
      "Braz": 4358,
      "Company": 4359,
      "basalt": 4360,
      "scarlet": 4361,
      "assem": 4362,
      "protection": 4363,
      "satisfac": 4364,
      "twinkling": 4365,
      "ratul": 4366,
      "sacks": 4367,
      "reflected": 4368,
      "whispering": 4369,
      "Tell": 4370,
      "pillars": 4371,
      "chuckled": 4372,
      "limited": 4373,
      "practical": 4374,
      "suspicion": 4375,
      "penetrated": 4376,
      "Having": 4377,
      "gaunt": 4378,
      "lurking": 4379,
      "office": 4380,
      "limbs": 4381,
      "developed": 4382,
      "poison": 4383,
      "Besides": 4384,
      "skelet": 4385,
      "committee": 4386,
      "disappointed": 4387,
      "spearmen": 4388,
      "About": 4389,
      "nesday": 4390,
      "declared": 4391,
      "policeman": 4392,
      "material": 4393,
      "traversed": 4394,
      "congratul": 4395,
      "houses": 4396,
      "thief": 4397,
      "according": 4398,
      "civilization": 4399,
      "Henry": 4400,
      "Illingworth": 4401,
      "Moria": 4402,
      "Ravenhill": 4403,
      "Wednesday": 4404,
      "bidding": 4405,
      "dusk": 4406,
      "gigantic": 4407,
      "shattered": 4408,
      "infernal": 4409,
      "atmosphere": 4410,
      "tobacco": 4411,
      "isolated": 4412,
      "urassic": 4413,
      "extreme": 4414,
      "conversation": 4415,
      "wholesome": 4416,
      "carniv": 4417,
      "curiosity": 4418,
      "Ap": 4419,
      "Ano": 4420,
      "Along": 4421,
      "Bar": 4422,
      "Bag": 4423,
      "Bey": 4424,
      "Bless": 4425,
      "Ch": 4426,
      "Cr": 4427,
      "Chi": 4428,
      "Col": 4429,
      "DR": 4430,
      "Day": 4431,
      "Dread": 4432,
      "End": 4433,
      "Gr": 4434,
      "Gon": 4435,
      "GER": 4436,
      "Half": 4437,
      "Hush": 4438,
      "High": 4439,
      "Homely": 4440,
      "IR": 4441,
      "IT": 4442,
      "IV": 4443,
      "Iron": 4444,
      "James": 4445,
      "Jurassic": 4446,
      "LD": 4447,
      "Mur": 4448,
      "Massa": 4449,
      "NO": 4450,
      "Off": 4451,
      "Put": 4452,
      "Slow": 4453,
      "Upon": 4454,
      "VE": 4455,
      "athing": 4456,
      "bly": 4457,
      "bag": 4458,
      "bark": 4459,
      "bub": 4460,
      "bats": 4461,
      "cow": 4462,
      "coo": 4463,
      "chap": 4464,
      "cool": 4465,
      "dwe": 4466,
      "dried": 4467,
      "dagger": 4468,
      "drivers": 4469,
      "eve": 4470,
      "egg": 4471,
      "eggs": 4472,
      "faster": 4473,
      "fasc": 4474,
      "fug": 4475,
      "gir": 4476,
      "ggling": 4477,
      "ime": 4478,
      "jaws": 4479,
      "kin": 4480,
      "kit": 4481,
      "mou": 4482,
      "mir": 4483,
      "mix": 4484,
      "maj": 4485,
      "nine": 4486,
      "odd": 4487,
      "oaks": 4488,
      "pa": 4489,
      "phi": 4490,
      "paid": 4491,
      "padd": 4492,
      "pause": 4493,
      "rag": 4494,
      "rout": 4495,
      "rare": 4496,
      "rul": 4497,
      "rade": 4498,
      "rushes": 4499,
      "riddles": 4500,
      "san": 4501,
      "sno": 4502,
      "slee": 4503,
      "sized": 4504,
      "tum": 4505,
      "vap": 4506,
      "wave": 4507,
      "wider": 4508,
      "wants": 4509,
      "ze": 4510,
      "thongs": 4511,
      "ino": 4512,
      "inqu": 4513,
      "inct": 4514,
      "intro": 4515,
      "rear": 4516,
      "regre": 4517,
      "renew": 4518,
      "relie": 4519,
      "removed": 4520,
      "recollection": 4521,
      "onto": 4522,
      "heat": 4523,
      "heap": 4524,
      "asho": 4525,
      "asks": 4526,
      "associ": 4527,
      "edges": 4528,
      "toast": 4529,
      "toss": 4530,
      "today": 4531,
      "tomorrow": 4532,
      "ises": 4533,
      "island": 4534,
      "istic": 4535,
      "arrang": 4536,
      "iter": 4537,
      "itality": 4538,
      "stag": 4539,
      "beer": 4540,
      "beha": 4541,
      "beech": 4542,
      "belts": 4543,
      "web": 4544,
      "weep": 4545,
      "washed": 4546,
      "roared": 4547,
      "veyed": 4548,
      "aca": 4549,
      "accom": 4550,
      "activity": 4551,
      "accept": 4552,
      "notion": 4553,
      "nobody": 4554,
      "altered": 4555,
      "alert": 4556,
      "alarmed": 4557,
      "chor": 4558,
      "chose": 4559,
      "chances": 4560,
      "choose": 4561,
      "youth": 4562,
      "hissing": 4563,
      "unk": 4564,
      "unto": 4565,
      "unseen": 4566,
      "unbroken": 4567,
      "uneasy": 4568,
      "rival": 4569,
      "tily": 4570,
      "kered": 4571,
      "aggress": 4572,
      "cocked": 4573,
      "ams": 4574,
      "boys": 4575,
      "using": 4576,
      "usive": 4577,
      "ils": 4578,
      "neat": 4579,
      "neath": 4580,
      "terday": 4581,
      "pets": 4582,
      "pelled": 4583,
      "caut": 4584,
      "abor": 4585,
      "details": 4586,
      "departed": 4587,
      "arer": 4588,
      "shows": 4589,
      "logs": 4590,
      "posite": 4591,
      "blade": 4592,
      "blunder": 4593,
      "blank": 4594,
      "dod": 4595,
      "dogs": 4596,
      "dolin": 4597,
      "pling": 4598,
      "pluck": 4599,
      "apes": 4600,
      "apples": 4601,
      "endless": 4602,
      "exists": 4603,
      "exposed": 4604,
      "file": 4605,
      "forever": 4606,
      "seek": 4607,
      "ulse": 4608,
      "grad": 4609,
      "grave": 4610,
      "brass": 4611,
      "brave": 4612,
      "concer": 4613,
      "concei": 4614,
      "spinning": 4615,
      "--'": 4616,
      "insisted": 4617,
      "horiz": 4618,
      "greatest": 4619,
      "iced": 4620,
      "elabor": 4621,
      "precise": 4622,
      "opposite": 4623,
      "overhanging": 4624,
      "drows": 4625,
      "mercy": 4626,
      "strung": 4627,
      "crou": 4628,
      "crist": 4629,
      "crush": 4630,
      "cruel": 4631,
      "antage": 4632,
      "wollen": 4633,
      "mental": 4634,
      "discre": 4635,
      "thanked": 4636,
      "lighter": 4637,
      "permission": 4638,
      "prosp": 4639,
      "project": 4640,
      "clapped": 4641,
      "clinging": 4642,
      "turns": 4643,
      "menace": 4644,
      "shouldn": 4645,
      "underneath": 4646,
      "working": 4647,
      "works": 4648,
      "flashed": 4649,
      "flapping": 4650,
      "woodland": 4651,
      "mud": 4652,
      "nightmare": 4653,
      "earnest": 4654,
      "stolen": 4655,
      "hunter": 4656,
      "hunger": 4657,
      "atures": 4658,
      "carri": 4659,
      "desk": 4660,
      "descent": 4661,
      "resist": 4662,
      "breathing": 4663,
      "azy": 4664,
      "shaky": 4665,
      "passes": 4666,
      "obst": 4667,
      "obli": 4668,
      "stealth": 4669,
      "blackened": 4670,
      "blackness": 4671,
      "slate": 4672,
      "slender": 4673,
      "match": 4674,
      "stooping": 4675,
      "cases": 4676,
      "casks": 4677,
      "miss": 4678,
      "miser": 4679,
      "misty": 4680,
      "curse": 4681,
      "chill": 4682,
      "chain": 4683,
      "scent": 4684,
      "tower": 4685,
      "double": 4686,
      "deeds": 4687,
      "windows": 4688,
      "minds": 4689,
      "Both": 4690,
      "pointment": 4691,
      "burgl": 4692,
      "jected": 4693,
      "tops": 4694,
      "tropical": 4695,
      "guesses": 4696,
      "Roac": 4697,
      "wizards": 4698,
      "kindness": 4699,
      "hero": 4700,
      "laden": 4701,
      "keeps": 4702,
      "mines": 4703,
      "snake": 4704,
      "condu": 4705,
      "stronger": 4706,
      "tribe": 4707,
      "trick": 4708,
      "tribes": 4709,
      "drop": 4710,
      "chiefly": 4711,
      "believed": 4712,
      "bowing": 4713,
      "However": 4714,
      "slimy": 4715,
      "slipping": 4716,
      "choice": 4717,
      "athed": 4718,
      "native": 4719,
      "swim": 4720,
      "ference": 4721,
      "flowing": 4722,
      "smote": 4723,
      "split": 4724,
      "killing": 4725,
      "collar": 4726,
      "volent": 4727,
      "volution": 4728,
      "wander": 4729,
      "driving": 4730,
      "preciouss": 4731,
      "badly": 4732,
      "sweet": 4733,
      "gently": 4734,
      "troubles": 4735,
      "ferns": 4736,
      "midday": 4737,
      "loudly": 4738,
      "pretend": 4739,
      "daresay": 4740,
      "frag": 4741,
      "frown": 4742,
      "thropo": 4743,
      "honest": 4744,
      "explore": 4745,
      "corro": 4746,
      "roughly": 4747,
      "CHALL": 4748,
      "Exc": 4749,
      "bounded": 4750,
      "sym": 4751,
      "approached": 4752,
      "muttered": 4753,
      "Tookish": 4754,
      "attacked": 4755,
      "collected": 4756,
      "depend": 4757,
      "thankful": 4758,
      "interruption": 4759,
      "Orcrist": 4760,
      "calm": 4761,
      "advantage": 4762,
      "indicated": 4763,
      "succeed": 4764,
      "Anyway": 4765,
      "Anything": 4766,
      "notebook": 4767,
      "glimpses": 4768,
      "publ": 4769,
      "beaten": 4770,
      "ification": 4771,
      "evidently": 4772,
      "pursuit": 4773,
      "victi": 4774,
      "victory": 4775,
      "quarter": 4776,
      "specimens": 4777,
      "ENGER": 4778,
      "Stand": 4779,
      "simple": 4780,
      "cellar": 4781,
      "defend": 4782,
      "glasses": 4783,
      "kicked": 4784,
      "copy": 4785,
      "satisfied": 4786,
      "disturb": 4787,
      "disturbed": 4788,
      "latter": 4789,
      "males": 4790,
      "INGWOR": 4791,
      "OFESS": 4792,
      "labor": 4793,
      "scale": 4794,
      "concealed": 4795,
      "preparations": 4796,
      "supplies": 4797,
      "surviving": 4798,
      "thorough": 4799,
      "asphalt": 4800,
      "feathers": 4801,
      "departure": 4802,
      "demonstration": 4803,
      "apparently": 4804,
      "assertions": 4805,
      "Quickly": 4806,
      "Luckily": 4807,
      "avoid": 4808,
      "benches": 4809,
      "fruit": 4810,
      "insect": 4811,
      "bewildered": 4812,
      "reserve": 4813,
      "waistcoat": 4814,
      "elephant": 4815,
      "dungeons": 4816,
      "Burglar": 4817,
      "Hobbit": 4818,
      "ILLINGWOR": 4819,
      "PROFESS": 4820,
      "yelping": 4821,
      "accessible": 4822,
      "shooting": 4823,
      "bruised": 4824,
      "ignorant": 4825,
      "heavily": 4826,
      "dinosaurs": 4827,
      "faithful": 4828,
      "World": 4829,
      "recogn": 4830,
      "ingenious": 4831,
      "mystery": 4832,
      "detached": 4833,
      "effects": 4834,
      "Austin": 4835,
      "Science": 4836,
      "Those": 4837,
      "malevolent": 4838,
      "scanty": 4839,
      "tidings": 4840,
      "uffling": 4841,
      "original": 4842,
      "amendment": 4843,
      "mantelpiece": 4844,
      "refuge": 4845,
      "skeleton": 4846,
      "carnivorous": 4847,
      "Another": 4848,
      "Barrel": 4849,
      "Beyond": 4850,
      "Gondolin": 4851,
      "dwelt": 4852,
      "fugit": 4853,
      "vapour": 4854,
      "introdu": 4855,
      "ashore": 4856,
      "aggressive": 4857,
      "conceiv": 4858,
      "horizon": 4859,
      "CHALLENGER": 4860,
      "ILLINGWORTH": 4861,
      "PROFESSOR": 4862,
      "\"--": 4863,
      "AT": 4864,
      "Act": 4865,
      "Bill": 4866,
      "Bird": 4867,
      "Dark": 4868,
      "Fl": 4869,
      "FOR": 4870,
      "ID": 4871,
      "Ke": 4872,
      "Mer": 4873,
      "NE": 4874,
      "Next": 4875,
      "Over": 4876,
      "Park": 4877,
      "Round": 4878,
      "Sco": 4879,
      "Spl": 4880,
      "Time": 4881,
      "Vien": 4882,
      "WA": 4883,
      "Wo": 4884,
      "Whe": 4885,
      "Wonder": 4886,
      "Ya": 4887,
      "YOU": 4888,
      "bany": 4889,
      "bade": 4890,
      "bber": 4891,
      "bump": 4892,
      "bending": 4893,
      "blot": 4894,
      "bunch": 4895,
      "bumping": 4896,
      "da": 4897,
      "den": 4898,
      "dance": 4899,
      "fts": 4900,
      "furn": 4901,
      "fade": 4902,
      "fron": 4903,
      "flic": 4904,
      "gin": 4905,
      "gorge": 4906,
      "hus": 4907,
      "hush": 4908,
      "harm": 4909,
      "iest": 4910,
      "jab": 4911,
      "jug": 4912,
      "kward": 4913,
      "lg": 4914,
      "lust": 4915,
      "lally": 4916,
      "lting": 4917,
      "mound": 4918,
      "mic": 4919,
      "mmed": 4920,
      "mort": 4921,
      "maid": 4922,
      "mouse": 4923,
      "nger": 4924,
      "nonsense": 4925,
      "oe": 4926,
      "plo": 4927,
      "paw": 4928,
      "pardon": 4929,
      "rous": 4930,
      "raw": 4931,
      "rumbled": 4932,
      "riding": 4933,
      "ragged": 4934,
      "sch": 4935,
      "sway": 4936,
      "slight": 4937,
      "sons": 4938,
      "silly": 4939,
      "swollen": 4940,
      "tone": 4941,
      "tap": 4942,
      "tend": 4943,
      "tins": 4944,
      "tender": 4945,
      "tables": 4946,
      "ume": 4947,
      "vided": 4948,
      "ws": 4949,
      "wha": 4950,
      "wak": 4951,
      "zy": 4952,
      "zare": 4953,
      "thri": 4954,
      "thie": 4955,
      "invent": 4956,
      "insol": 4957,
      "intent": 4958,
      "ancer": 4959,
      "anthropo": 4960,
      "rect": 4961,
      "reign": 4962,
      "rejo": 4963,
      "recovered": 4964,
      "revenge": 4965,
      "oub": 4966,
      "atter": 4967,
      "ators": 4968,
      "heed": 4969,
      "heir": 4970,
      "asy": 4971,
      "asion": 4972,
      "asking": 4973,
      "educ": 4974,
      "editor": 4975,
      "ende": 4976,
      "enced": 4977,
      "tore": 4978,
      "toed": 4979,
      "total": 4980,
      "arti": 4981,
      "arching": 4982,
      "aroused": 4983,
      "haired": 4984,
      "stu": 4985,
      "stup": 4986,
      "stab": 4987,
      "stained": 4988,
      "mead": 4989,
      "metal": 4990,
      "measure": 4991,
      "mechan": 4992,
      "members": 4993,
      "bees": 4994,
      "sex": 4995,
      "sees": 4996,
      "seats": 4997,
      "sealed": 4998,
      "searched": 4999
    },
    "merges": [
      [
        "t",
        "h"
      ],
      [
        "th",
        "e"
      ],
      [
        "i",
        "n"
      ],
      [
        "a",
        "n"
      ],
      [
        "r",
        "e"
      ],
      [
        "o",
        "u"
      ],
      [
        "an",
        "d"
      ],
      [
        "o",
        "n"
      ],
      [
        "e",
        "r"
      ],
      [
        "a",
        "t"
      ],
      [
        "h",
        "e"
      ],
      [
        "a",
        "s"
      ],
      [
        "e",
        "d"
      ],
      [
        "e",
        "n"
      ],
      [
        "o",
        "f"
      ],
      [
        "t",
        "o"
      ],
      [
        "in",
        "g"
      ],
      [
        "o",
        "r"
      ],
      [
        "l",
        "l"
      ],
      [
        "i",
        "s"
      ],
      [
        "a",
        "r"
      ],
      [
        "e",
        "s"
      ],
      [
        "i",
        "t"
      ],
      [
        "h",
        "a"
      ],
      [
        "l",
        "e"
      ],
      [
        "s",
        "t"
      ],
      [
        "m",
        "e"
      ],
      [
        "b",
        "e"
      ],
      [
        "o",
        "w"
      ],
      [
        "w",
        "e"
      ],
      [
        "w",
        "as"
      ],
      [
        "s",
        "e"
      ],
      [
        "i",
        "d"
      ],
      [
        "l",
        "d"
      ],
      [
        "h",
        "i"
      ],
      [
        "r",
        "o"
      ],
      [
        "v",
        "e"
      ],
      [
        "g",
        "h"
      ],
      [
        "w",
        "i"
      ],
      [
        "a",
        "c"
      ],
      [
        "th",
        "at"
      ],
      [
        "n",
        "o"
      ],
      [
        "l",
        "y"
      ],
      [
        "a",
        "l"
      ],
      [
        "c",
        "h"
      ],
      [
        "a",
        "ll"
      ],
      [
        "v",
        "er"
      ],
      [
        "y",
        "ou"
      ],
      [
        "h",
        "is"
      ],
      [
        "ha",
        "d"
      ],
      [
        "u",
        "t"
      ],
      [
        "l",
        "i"
      ],
      [
        "i",
        "r"
      ],
      [
        "a",
        "y"
      ],
      [
        "T",
        "he"
      ],
      [
        "f",
        "or"
      ],
      [
        "a",
        "d"
      ],
      [
        "u",
        "n"
      ],
      [
        "r",
        "i"
      ],
      [
        "gh",
        "t"
      ],
      [
        "wi",
        "th"
      ],
      [
        "ou",
        "ld"
      ],
      [
        "s",
        "o"
      ],
      [
        "t",
        "i"
      ],
      [
        "s",
        "a"
      ],
      [
        "o",
        "o"
      ],
      [
        "the",
        "y"
      ],
      [
        "en",
        "t"
      ],
      [
        "u",
        "p"
      ],
      [
        "k",
        "e"
      ],
      [
        "a",
        "g"
      ],
      [
        "c",
        "e"
      ],
      [
        "h",
        "o"
      ],
      [
        "we",
        "re"
      ],
      [
        "ou",
        "t"
      ],
      [
        "ou",
        "n"
      ],
      [
        "no",
        "t"
      ],
      [
        "u",
        "r"
      ],
      [
        "c",
        "o"
      ],
      [
        "ou",
        "r"
      ],
      [
        "a",
        "m"
      ],
      [
        "a",
        "in"
      ],
      [
        "b",
        "o"
      ],
      [
        "m",
        "o"
      ],
      [
        "on",
        "e"
      ],
      [
        "u",
        "s"
      ],
      [
        "i",
        "l"
      ],
      [
        "w",
        "hi"
      ],
      [
        "n",
        "e"
      ],
      [
        "t",
        "er"
      ],
      [
        "p",
        "e"
      ],
      [
        "f",
        "e"
      ],
      [
        "re",
        "d"
      ],
      [
        "g",
        "e"
      ],
      [
        "ha",
        "ve"
      ],
      [
        "ar",
        "d"
      ],
      [
        "g",
        "o"
      ],
      [
        "sa",
        "id"
      ],
      [
        "c",
        "a"
      ],
      [
        "the",
        "r"
      ],
      [
        "a",
        "b"
      ],
      [
        "m",
        "y"
      ],
      [
        "on",
        "g"
      ],
      [
        "the",
        "m"
      ],
      [
        "whi",
        "ch"
      ],
      [
        "ro",
        "m"
      ],
      [
        "b",
        "ut"
      ],
      [
        "h",
        "at"
      ],
      [
        "d",
        "e"
      ],
      [
        "es",
        "s"
      ],
      [
        "hi",
        "m"
      ],
      [
        "ow",
        "n"
      ],
      [
        "c",
        "k"
      ],
      [
        "u",
        "m"
      ],
      [
        "a",
        "re"
      ],
      [
        "as",
        "t"
      ],
      [
        "f",
        "rom"
      ],
      [
        "the",
        "ir"
      ],
      [
        "f",
        "o"
      ],
      [
        "v",
        "es"
      ],
      [
        "w",
        "he"
      ],
      [
        "s",
        "h"
      ],
      [
        "l",
        "o"
      ],
      [
        "p",
        "o"
      ],
      [
        "i",
        "on"
      ],
      [
        "ac",
        "k"
      ],
      [
        "c",
        "ould"
      ],
      [
        "i",
        "f"
      ],
      [
        "oun",
        "d"
      ],
      [
        "b",
        "l"
      ],
      [
        "oo",
        "d"
      ],
      [
        "so",
        "me"
      ],
      [
        "the",
        "re"
      ],
      [
        "d",
        "o"
      ],
      [
        "p",
        "l"
      ],
      [
        "in",
        "d"
      ],
      [
        "H",
        "e"
      ],
      [
        "u",
        "re"
      ],
      [
        "w",
        "ay"
      ],
      [
        "an",
        "y"
      ],
      [
        "n",
        "ow"
      ],
      [
        "g",
        "re"
      ],
      [
        "a",
        "p"
      ],
      [
        "en",
        "d"
      ],
      [
        "e",
        "x"
      ],
      [
        "I",
        "t"
      ],
      [
        "th",
        "ing"
      ],
      [
        "e",
        "t"
      ],
      [
        "B",
        "il"
      ],
      [
        "Bil",
        "bo"
      ],
      [
        "b",
        "y"
      ],
      [
        "f",
        "i"
      ],
      [
        "ou",
        "s"
      ],
      [
        "ver",
        "y"
      ],
      [
        "th",
        "is"
      ],
      [
        "fo",
        "re"
      ],
      [
        "t",
        "r"
      ],
      [
        "!",
        "”"
      ],
      [
        "se",
        "e"
      ],
      [
        "ou",
        "gh"
      ],
      [
        "u",
        "l"
      ],
      [
        "u",
        "st"
      ],
      [
        "id",
        "e"
      ],
      [
        "i",
        "ght"
      ],
      [
        "q",
        "u"
      ],
      [
        "w",
        "ould"
      ],
      [
        "t",
        "e"
      ],
      [
        "d",
        "own"
      ],
      [
        "t",
        "ed"
      ],
      [
        "k",
        "ing"
      ],
      [
        "v",
        "en"
      ],
      [
        "up",
        "on"
      ],
      [
        "ha",
        "ll"
      ],
      [
        "w",
        "ar"
      ],
      [
        "g",
        "r"
      ],
      [
        "d",
        "er"
      ],
      [
        "c",
        "an"
      ],
      [
        "b",
        "r"
      ],
      [
        "i",
        "ll"
      ],
      [
        "s",
        "u"
      ],
      [
        "in",
        "to"
      ],
      [
        "be",
        "en"
      ],
      [
        "he",
        "d"
      ],
      [
        ".",
        "\""
      ],
      [
        "li",
        "ke"
      ],
      [
        "mo",
        "re"
      ],
      [
        "s",
        "s"
      ],
      [
        "at",
        "e"
      ],
      [
        "or",
        "d"
      ],
      [
        "p",
        "ed"
      ],
      [
        "a",
        "ke"
      ],
      [
        "k",
        "ed"
      ],
      [
        "g",
        "er"
      ],
      [
        "c",
        "on"
      ],
      [
        "wi",
        "ll"
      ],
      [
        "to",
        "o"
      ],
      [
        "co",
        "m"
      ],
      [
        "s",
        "p"
      ],
      [
        "l",
        "f"
      ],
      [
        "b",
        "ack"
      ],
      [
        "e",
        "p"
      ],
      [
        "w",
        "hat"
      ],
      [
        "w",
        "ho"
      ],
      [
        "-",
        "-"
      ],
      [
        "t",
        "ain"
      ],
      [
        "whe",
        "n"
      ],
      [
        "l",
        "ong"
      ],
      [
        "t",
        "re"
      ],
      [
        "in",
        "s"
      ],
      [
        "ca",
        "me"
      ],
      [
        "W",
        "e"
      ],
      [
        "i",
        "m"
      ],
      [
        "h",
        "or"
      ],
      [
        "gre",
        "at"
      ],
      [
        "l",
        "oo"
      ],
      [
        "you",
        "r"
      ],
      [
        "o",
        "ther"
      ],
      [
        "er",
        "s"
      ],
      [
        "ac",
        "e"
      ],
      [
        "i",
        "c"
      ],
      [
        "t",
        "s"
      ],
      [
        ",",
        "”"
      ],
      [
        "ti",
        "on"
      ],
      [
        "m",
        "an"
      ],
      [
        "a",
        "f"
      ],
      [
        "e",
        "l"
      ],
      [
        "be",
        "fore"
      ],
      [
        "p",
        "re"
      ],
      [
        "ti",
        "me"
      ],
      [
        "o",
        "p"
      ],
      [
        "B",
        "ut"
      ],
      [
        "ar",
        "k"
      ],
      [
        "o",
        "ver"
      ],
      [
        "it",
        "t"
      ],
      [
        "d",
        "war"
      ],
      [
        "d",
        "r"
      ],
      [
        "m",
        "er"
      ],
      [
        "n",
        "d"
      ],
      [
        "a",
        "u"
      ],
      [
        "st",
        "r"
      ],
      [
        "ou",
        "ght"
      ],
      [
        "it",
        "e"
      ],
      [
        ".",
        "”"
      ],
      [
        "d",
        "ay"
      ],
      [
        "l",
        "ow"
      ],
      [
        "ag",
        "ain"
      ],
      [
        "co",
        "me"
      ],
      [
        "c",
        "r"
      ],
      [
        "an",
        "t"
      ],
      [
        "The",
        "y"
      ],
      [
        "e",
        "y"
      ],
      [
        "ur",
        "n"
      ],
      [
        "ab",
        "out"
      ],
      [
        "b",
        "le"
      ],
      [
        "c",
        "i"
      ],
      [
        "b",
        "it"
      ],
      [
        "ab",
        "le"
      ],
      [
        "ge",
        "t"
      ],
      [
        "w",
        "o"
      ],
      [
        "m",
        "ent"
      ],
      [
        "d",
        "is"
      ],
      [
        "th",
        "an"
      ],
      [
        "at",
        "ion"
      ],
      [
        ",",
        "\""
      ],
      [
        "li",
        "ght"
      ],
      [
        "e",
        "ver"
      ],
      [
        "on",
        "ly"
      ],
      [
        "es",
        "t"
      ],
      [
        "th",
        "r"
      ],
      [
        "The",
        "re"
      ],
      [
        "dwar",
        "ves"
      ],
      [
        "a",
        "k"
      ],
      [
        "p",
        "er"
      ],
      [
        "w",
        "ard"
      ],
      [
        "ad",
        "e"
      ],
      [
        "oun",
        "tain"
      ],
      [
        "p",
        "ro"
      ],
      [
        "all",
        "y"
      ],
      [
        "c",
        "l"
      ],
      [
        "as",
        "s"
      ],
      [
        "t",
        "urn"
      ],
      [
        "se",
        "lf"
      ],
      [
        "h",
        "and"
      ],
      [
        "in",
        "k"
      ],
      [
        "m",
        "en"
      ],
      [
        "sh",
        "ould"
      ],
      [
        "itt",
        "le"
      ],
      [
        "c",
        "t"
      ],
      [
        "c",
        "re"
      ],
      [
        "g",
        "ood"
      ],
      [
        "l",
        "ittle"
      ],
      [
        "S",
        "o"
      ],
      [
        "i",
        "ve"
      ],
      [
        "whe",
        "re"
      ],
      [
        "l",
        "ed"
      ],
      [
        "l",
        "ast"
      ],
      [
        "it",
        "s"
      ],
      [
        "T",
        "hor"
      ],
      [
        "d",
        "id"
      ],
      [
        "Thor",
        "in"
      ],
      [
        "m",
        "ed"
      ],
      [
        "of",
        "f"
      ],
      [
        "un",
        "der"
      ],
      [
        "af",
        "ter"
      ],
      [
        "i",
        "ck"
      ],
      [
        "t",
        "y"
      ],
      [
        "en",
        "ger"
      ],
      [
        "st",
        "ill"
      ],
      [
        "re",
        "ad"
      ],
      [
        "e",
        "ven"
      ],
      [
        "f",
        "ar"
      ],
      [
        "an",
        "ce"
      ],
      [
        "he",
        "ad"
      ],
      [
        "a",
        "th"
      ],
      [
        "w",
        "or"
      ],
      [
        "i",
        "g"
      ],
      [
        "p",
        "ar"
      ],
      [
        "the",
        "n"
      ],
      [
        "m",
        "b"
      ],
      [
        "mo",
        "st"
      ],
      [
        "k",
        "now"
      ],
      [
        "n",
        "ing"
      ],
      [
        "Y",
        "ou"
      ],
      [
        "en",
        "ce"
      ],
      [
        "C",
        "hall"
      ],
      [
        "c",
        "he"
      ],
      [
        "d",
        "ark"
      ],
      [
        "ri",
        "ed"
      ],
      [
        "go",
        "t"
      ],
      [
        "Chall",
        "enger"
      ],
      [
        "w",
        "at"
      ],
      [
        "r",
        "of"
      ],
      [
        "an",
        "s"
      ],
      [
        "I",
        "n"
      ],
      [
        "?",
        "\""
      ],
      [
        "m",
        "ade"
      ],
      [
        "t",
        "ing"
      ],
      [
        "d",
        "d"
      ],
      [
        "g",
        "l"
      ],
      [
        "r",
        "ound"
      ],
      [
        "in",
        "e"
      ],
      [
        "g",
        "u"
      ],
      [
        "w",
        "ent"
      ],
      [
        "a",
        "w"
      ],
      [
        "h",
        "ow"
      ],
      [
        "ri",
        "ght"
      ],
      [
        "A",
        "nd"
      ],
      [
        "v",
        "ed"
      ],
      [
        "rof",
        "ess"
      ],
      [
        "The",
        "n"
      ],
      [
        "thr",
        "ough"
      ],
      [
        "s",
        "ide"
      ],
      [
        "u",
        "ll"
      ],
      [
        "he",
        "re"
      ],
      [
        "a",
        "ve"
      ],
      [
        "m",
        "ay"
      ],
      [
        "we",
        "ll"
      ],
      [
        "f",
        "l"
      ],
      [
        "th",
        "ought"
      ],
      [
        "s",
        "ay"
      ],
      [
        "r",
        "y"
      ],
      [
        "rofess",
        "or"
      ],
      [
        "whi",
        "le"
      ],
      [
        "is",
        "h"
      ],
      [
        "m",
        "ust"
      ],
      [
        "a",
        "ir"
      ],
      [
        "a",
        "way"
      ],
      [
        "f",
        "ul"
      ],
      [
        "w",
        "ood"
      ],
      [
        "al",
        "f"
      ],
      [
        "fe",
        "ll"
      ],
      [
        "d",
        "on"
      ],
      [
        "be",
        "g"
      ],
      [
        "W",
        "hat"
      ],
      [
        "ha",
        "p"
      ],
      [
        "P",
        "rofessor"
      ],
      [
        "f",
        "t"
      ],
      [
        "l",
        "ess"
      ],
      [
        "s",
        "pe"
      ],
      [
        "or",
        "t"
      ],
      [
        "G",
        "and"
      ],
      [
        "h",
        "as"
      ],
      [
        "s",
        "m"
      ],
      [
        "ag",
        "e"
      ],
      [
        "Gand",
        "alf"
      ],
      [
        "go",
        "bl"
      ],
      [
        "d",
        "i"
      ],
      [
        "m",
        "u"
      ],
      [
        "n",
        "ight"
      ],
      [
        "N",
        "o"
      ],
      [
        "an",
        "g"
      ],
      [
        "um",
        "mer"
      ],
      [
        "ir",
        "st"
      ],
      [
        "do",
        "or"
      ],
      [
        "en",
        "ed"
      ],
      [
        "b",
        "bit"
      ],
      [
        "ne",
        "ver"
      ],
      [
        "?",
        "”"
      ],
      [
        "e",
        "ar"
      ],
      [
        "ne",
        "w"
      ],
      [
        "ac",
        "h"
      ],
      [
        "m",
        "any"
      ],
      [
        "t",
        "wo"
      ],
      [
        "s",
        "to"
      ],
      [
        "v",
        "o"
      ],
      [
        "L",
        "ord"
      ],
      [
        "o",
        "ld"
      ],
      [
        "v",
        "i"
      ],
      [
        "th",
        "ink"
      ],
      [
        "ho",
        "bbit"
      ],
      [
        "f",
        "ound"
      ],
      [
        "h",
        "un"
      ],
      [
        "p",
        "t"
      ],
      [
        "at",
        "ure"
      ],
      [
        "le",
        "e"
      ],
      [
        "ey",
        "es"
      ],
      [
        "mu",
        "ch"
      ],
      [
        "c",
        "le"
      ],
      [
        "h",
        "ind"
      ],
      [
        "j",
        "ust"
      ],
      [
        "u",
        "e"
      ],
      [
        "su",
        "ch"
      ],
      [
        "f",
        "irst"
      ],
      [
        "ward",
        "s"
      ],
      [
        "u",
        "se"
      ],
      [
        "dd",
        "en"
      ],
      [
        "a",
        "ther"
      ],
      [
        "c",
        "ar"
      ],
      [
        "d",
        "es"
      ],
      [
        "w",
        "on"
      ],
      [
        "w",
        "ord"
      ],
      [
        "re",
        "s"
      ],
      [
        "the",
        "se"
      ],
      [
        "S",
        "ummer"
      ],
      [
        "th",
        "ough"
      ],
      [
        "v",
        "ing"
      ],
      [
        "Summer",
        "lee"
      ],
      [
        "r",
        "ing"
      ],
      [
        "b",
        "re"
      ],
      [
        "G",
        "o"
      ],
      [
        "c",
        "oun"
      ],
      [
        "sa",
        "w"
      ],
      [
        "p",
        "r"
      ],
      [
        "t",
        "en"
      ],
      [
        "m",
        "s"
      ],
      [
        "be",
        "t"
      ],
      [
        "T",
        "hat"
      ],
      [
        "m",
        "or"
      ],
      [
        "M",
        "ountain"
      ],
      [
        "c",
        "li"
      ],
      [
        "ag",
        "on"
      ],
      [
        "he",
        "ar"
      ],
      [
        "be",
        "hind"
      ],
      [
        "ag",
        "g"
      ],
      [
        "ro",
        "ck"
      ],
      [
        "ac",
        "t"
      ],
      [
        "a",
        "red"
      ],
      [
        "ow",
        "s"
      ],
      [
        "tre",
        "es"
      ],
      [
        "f",
        "ri"
      ],
      [
        "m",
        "ight"
      ],
      [
        "he",
        "ard"
      ],
      [
        "gobl",
        "ins"
      ],
      [
        "i",
        "es"
      ],
      [
        "J",
        "o"
      ],
      [
        "s",
        "hall"
      ],
      [
        "see",
        "med"
      ],
      [
        "loo",
        "ked"
      ],
      [
        "!",
        "\""
      ],
      [
        "wat",
        "er"
      ],
      [
        "fri",
        "end"
      ],
      [
        "f",
        "ind"
      ],
      [
        "am",
        "p"
      ],
      [
        "e",
        "very"
      ],
      [
        "l",
        "and"
      ],
      [
        "r",
        "on"
      ],
      [
        "w",
        "a"
      ],
      [
        "c",
        "our"
      ],
      [
        "c",
        "lo"
      ],
      [
        "f",
        "f"
      ],
      [
        "he",
        "l"
      ],
      [
        "ro",
        "ss"
      ],
      [
        "h",
        "n"
      ],
      [
        "le",
        "ft"
      ],
      [
        "l",
        "es"
      ],
      [
        "s",
        "ing"
      ],
      [
        "at",
        "ed"
      ],
      [
        "Jo",
        "hn"
      ],
      [
        "a",
        "bo"
      ],
      [
        "v",
        "ent"
      ],
      [
        "pl",
        "ace"
      ],
      [
        "s",
        "up"
      ],
      [
        "so",
        "on"
      ],
      [
        "po",
        "in"
      ],
      [
        "it",
        "y"
      ],
      [
        "y",
        "et"
      ],
      [
        "ti",
        "l"
      ],
      [
        "am",
        "ong"
      ],
      [
        "p",
        "ped"
      ],
      [
        "a",
        "z"
      ],
      [
        "p",
        "le"
      ],
      [
        "ll",
        "ow"
      ],
      [
        "no",
        "thing"
      ],
      [
        "fi",
        "re"
      ],
      [
        "l",
        "s"
      ],
      [
        "u",
        "ck"
      ],
      [
        "is",
        "e"
      ],
      [
        "ti",
        "c"
      ],
      [
        "dr",
        "agon"
      ],
      [
        "m",
        "ake"
      ],
      [
        "se",
        "en"
      ],
      [
        "abo",
        "ve"
      ],
      [
        "B",
        "e"
      ],
      [
        "s",
        "ha"
      ],
      [
        "f",
        "ull"
      ],
      [
        "l",
        "ay"
      ],
      [
        "an",
        "k"
      ],
      [
        "ri",
        "ver"
      ],
      [
        "fe",
        "et"
      ],
      [
        "A",
        "s"
      ],
      [
        "su",
        "dden"
      ],
      [
        "M",
        "r"
      ],
      [
        "e",
        "f"
      ],
      [
        "t",
        "al"
      ],
      [
        "w",
        "h"
      ],
      [
        "che",
        "s"
      ],
      [
        "m",
        "ountain"
      ],
      [
        "ou",
        "th"
      ],
      [
        "is",
        "t"
      ],
      [
        "him",
        "self"
      ],
      [
        "re",
        "m"
      ],
      [
        "ne",
        "ar"
      ],
      [
        "ap",
        "pe"
      ],
      [
        "op",
        "en"
      ],
      [
        "c",
        "all"
      ],
      [
        "f",
        "ace"
      ],
      [
        "s",
        "er"
      ],
      [
        "x",
        "t"
      ],
      [
        "st",
        "re"
      ],
      [
        "l",
        "ing"
      ],
      [
        "l",
        "ves"
      ],
      [
        "n",
        "ess"
      ],
      [
        "re",
        "st"
      ],
      [
        "un",
        "til"
      ],
      [
        "read",
        "y"
      ],
      [
        "b",
        "us"
      ],
      [
        "i",
        "ce"
      ],
      [
        "th",
        "re"
      ],
      [
        "le",
        "t"
      ],
      [
        "thing",
        "s"
      ],
      [
        "N",
        "ow"
      ],
      [
        "s",
        "il"
      ],
      [
        "c",
        "tion"
      ],
      [
        "on",
        "ce"
      ],
      [
        "st",
        "ar"
      ],
      [
        "some",
        "thing"
      ],
      [
        "c",
        "hed"
      ],
      [
        "p",
        "ass"
      ],
      [
        "ing",
        "s"
      ],
      [
        "h",
        "ard"
      ],
      [
        "p",
        "ut"
      ],
      [
        "au",
        "g"
      ],
      [
        "r",
        "ow"
      ],
      [
        "s",
        "ent"
      ],
      [
        "cre",
        "ature"
      ],
      [
        "d",
        "re"
      ],
      [
        "st",
        "and"
      ],
      [
        "We",
        "ll"
      ],
      [
        "a",
        "king"
      ],
      [
        "c",
        "ried"
      ],
      [
        "or",
        "n"
      ],
      [
        "with",
        "out"
      ],
      [
        "a",
        "le"
      ],
      [
        "g",
        "s"
      ],
      [
        "n",
        "g"
      ],
      [
        "o",
        "b"
      ],
      [
        "s",
        "ho"
      ],
      [
        "go",
        "ing"
      ],
      [
        "de",
        "ep"
      ],
      [
        "hi",
        "gh"
      ],
      [
        "al",
        "ong"
      ],
      [
        "I",
        "f"
      ],
      [
        "f",
        "all"
      ],
      [
        "tr",
        "y"
      ],
      [
        "tre",
        "e"
      ],
      [
        "m",
        "ar"
      ],
      [
        "s",
        "ur"
      ],
      [
        "b",
        "ro"
      ],
      [
        "i",
        "z"
      ],
      [
        "n",
        "or"
      ],
      [
        "st",
        "e"
      ],
      [
        "turn",
        "ed"
      ],
      [
        "o",
        "m"
      ],
      [
        "s",
        "ed"
      ],
      [
        "i",
        "li"
      ],
      [
        "o",
        "se"
      ],
      [
        "p",
        "ath"
      ],
      [
        "fi",
        "c"
      ],
      [
        "loo",
        "k"
      ],
      [
        "T",
        "his"
      ],
      [
        "p",
        "ing"
      ],
      [
        "an",
        "ge"
      ],
      [
        "oo",
        "k"
      ],
      [
        "bl",
        "ack"
      ],
      [
        "cour",
        "se"
      ],
      [
        "B",
        "agg"
      ],
      [
        "d",
        "if"
      ],
      [
        "l",
        "t"
      ],
      [
        "on",
        "es"
      ],
      [
        "fe",
        "el"
      ],
      [
        "beg",
        "an"
      ],
      [
        "Bagg",
        "ins"
      ],
      [
        "d",
        "an"
      ],
      [
        "s",
        "l"
      ],
      [
        "se",
        "t"
      ],
      [
        "go",
        "ld"
      ],
      [
        "m",
        "at"
      ],
      [
        "t",
        "ake"
      ],
      [
        "ti",
        "ll"
      ],
      [
        "A",
        "t"
      ],
      [
        "s",
        "k"
      ],
      [
        "s",
        "at"
      ],
      [
        "gr",
        "ound"
      ],
      [
        "m",
        "on"
      ],
      [
        "r",
        "un"
      ],
      [
        "s",
        "it"
      ],
      [
        "s",
        "too"
      ],
      [
        "mo",
        "ment"
      ],
      [
        "too",
        "k"
      ],
      [
        "c",
        "as"
      ],
      [
        "m",
        "is"
      ],
      [
        "t",
        "un"
      ],
      [
        "to",
        "r"
      ],
      [
        "sa",
        "me"
      ],
      [
        "op",
        "le"
      ],
      [
        "sm",
        "all"
      ],
      [
        "I",
        "nd"
      ],
      [
        "c",
        "ur"
      ],
      [
        "th",
        "ose"
      ],
      [
        "ir",
        "d"
      ],
      [
        "us",
        "ed"
      ],
      [
        "te",
        "ll"
      ],
      [
        "Ind",
        "i"
      ],
      [
        "a",
        "me"
      ],
      [
        "c",
        "hi"
      ],
      [
        "l",
        "ar"
      ],
      [
        "ll",
        "ed"
      ],
      [
        "s",
        "un"
      ],
      [
        "ll",
        "um"
      ],
      [
        "way",
        "s"
      ],
      [
        "fore",
        "st"
      ],
      [
        "day",
        "s"
      ],
      [
        "won",
        "der"
      ],
      [
        "i",
        "ous"
      ],
      [
        "at",
        "t"
      ],
      [
        "dis",
        "t"
      ],
      [
        "c",
        "amp"
      ],
      [
        "g",
        "ive"
      ],
      [
        "r",
        "u"
      ],
      [
        "w",
        "all"
      ],
      [
        "in",
        "ed"
      ],
      [
        "qu",
        "ite"
      ],
      [
        "c",
        "ha"
      ],
      [
        "i",
        "ble"
      ],
      [
        "in",
        "ce"
      ],
      [
        "as",
        "ter"
      ],
      [
        "ac",
        "ross"
      ],
      [
        "ig",
        "n"
      ],
      [
        "e",
        "ach"
      ],
      [
        "h",
        "u"
      ],
      [
        "p",
        "on"
      ],
      [
        "s",
        "c"
      ],
      [
        "as",
        "ked"
      ],
      [
        "ar",
        "y"
      ],
      [
        "st",
        "one"
      ],
      [
        "mor",
        "ning"
      ],
      [
        "s",
        "po"
      ],
      [
        "u",
        "d"
      ],
      [
        "re",
        "n"
      ],
      [
        "al",
        "in"
      ],
      [
        "ard",
        "s"
      ],
      [
        "hel",
        "p"
      ],
      [
        "vent",
        "ure"
      ],
      [
        "S",
        "m"
      ],
      [
        "a",
        "il"
      ],
      [
        "c",
        "ted"
      ],
      [
        "w",
        "r"
      ],
      [
        "ll",
        "s"
      ],
      [
        "pe",
        "ople"
      ],
      [
        "po",
        "ss"
      ],
      [
        "te",
        "red"
      ],
      [
        "el",
        "ves"
      ],
      [
        "hap",
        "p"
      ],
      [
        "m",
        "es"
      ],
      [
        "s",
        "had"
      ],
      [
        "on",
        "d"
      ],
      [
        "to",
        "w"
      ],
      [
        "li",
        "fe"
      ],
      [
        "d",
        "ou"
      ],
      [
        "en",
        "ough"
      ],
      [
        "you",
        "ng"
      ],
      [
        "li",
        "e"
      ],
      [
        "ri",
        "ble"
      ],
      [
        "com",
        "p"
      ],
      [
        "sudden",
        "ly"
      ],
      [
        "O",
        "n"
      ],
      [
        "a",
        "id"
      ],
      [
        "an",
        "other"
      ],
      [
        "is",
        "hed"
      ],
      [
        "br",
        "an"
      ],
      [
        "cle",
        "ar"
      ],
      [
        "Sm",
        "aug"
      ],
      [
        "ou",
        "d"
      ],
      [
        "en",
        "e"
      ],
      [
        "us",
        "h"
      ],
      [
        "friend",
        "s"
      ],
      [
        "T",
        "h"
      ],
      [
        "b",
        "ed"
      ],
      [
        "c",
        "er"
      ],
      [
        "i",
        "ly"
      ],
      [
        "s",
        "ound"
      ],
      [
        "ed",
        "ge"
      ],
      [
        "to",
        "ge"
      ],
      [
        "ha",
        "lf"
      ],
      [
        "ke",
        "t"
      ],
      [
        "de",
        "ed"
      ],
      [
        "ion",
        "s"
      ],
      [
        "br",
        "ought"
      ],
      [
        "toge",
        "ther"
      ],
      [
        "f",
        "ast"
      ],
      [
        "k",
        "n"
      ],
      [
        "k",
        "en"
      ],
      [
        "be",
        "ing"
      ],
      [
        "al",
        "one"
      ],
      [
        "a",
        "v"
      ],
      [
        "k",
        "s"
      ],
      [
        "who",
        "le"
      ],
      [
        "Go",
        "llum"
      ],
      [
        "wa",
        "it"
      ],
      [
        "g",
        "ave"
      ],
      [
        "j",
        "o"
      ],
      [
        "on",
        "s"
      ],
      [
        "we",
        "en"
      ],
      [
        "ul",
        "t"
      ],
      [
        "bet",
        "ween"
      ],
      [
        "thre",
        "e"
      ],
      [
        "stoo",
        "d"
      ],
      [
        "m",
        "p"
      ],
      [
        "s",
        "ure"
      ],
      [
        "s",
        "low"
      ],
      [
        "w",
        "ind"
      ],
      [
        "re",
        "me"
      ],
      [
        "er",
        "ing"
      ],
      [
        "al",
        "so"
      ],
      [
        "lo",
        "st"
      ],
      [
        "ex",
        "pe"
      ],
      [
        "dou",
        "b"
      ],
      [
        "d",
        "one"
      ],
      [
        "th",
        "in"
      ],
      [
        "re",
        "ally"
      ],
      [
        "fe",
        "w"
      ],
      [
        "So",
        "me"
      ],
      [
        "ron",
        "t"
      ],
      [
        "g",
        "i"
      ],
      [
        "g",
        "one"
      ],
      [
        "m",
        "ind"
      ],
      [
        "gre",
        "en"
      ],
      [
        "other",
        "s"
      ],
      [
        "di",
        "re"
      ],
      [
        "B",
        "o"
      ],
      [
        "c",
        "ent"
      ],
      [
        "al",
        "ways"
      ],
      [
        "ad",
        "venture"
      ],
      [
        "A",
        "ll"
      ],
      [
        "d",
        "y"
      ],
      [
        "f",
        "oo"
      ],
      [
        "m",
        "it"
      ],
      [
        "he",
        "s"
      ],
      [
        "fo",
        "llow"
      ],
      [
        "com",
        "ing"
      ],
      [
        "wor",
        "ld"
      ],
      [
        "par",
        "t"
      ],
      [
        "dan",
        "ger"
      ],
      [
        "s",
        "ince"
      ],
      [
        "ac",
        "es"
      ],
      [
        "qu",
        "ick"
      ],
      [
        "hand",
        "s"
      ],
      [
        "poin",
        "t"
      ],
      [
        "mountain",
        "s"
      ],
      [
        "hu",
        "ge"
      ],
      [
        "F",
        "or"
      ],
      [
        "d",
        "red"
      ],
      [
        "p",
        "i"
      ],
      [
        "id",
        "d"
      ],
      [
        "all",
        "ey"
      ],
      [
        "hun",
        "dred"
      ],
      [
        "cli",
        "ff"
      ],
      [
        "b",
        "ur"
      ],
      [
        "g",
        "g"
      ],
      [
        "j",
        "e"
      ],
      [
        "s",
        "ci"
      ],
      [
        "en",
        "s"
      ],
      [
        "to",
        "p"
      ],
      [
        "to",
        "wards"
      ],
      [
        "ar",
        "s"
      ],
      [
        "al",
        "ready"
      ],
      [
        "ho",
        "pe"
      ],
      [
        "str",
        "ange"
      ],
      [
        "mb",
        "er"
      ],
      [
        "tow",
        "n"
      ],
      [
        "b",
        "ar"
      ],
      [
        "es",
        "tion"
      ],
      [
        "se",
        "lves"
      ],
      [
        "id",
        "er"
      ],
      [
        "po",
        "se"
      ],
      [
        "ex",
        "ce"
      ],
      [
        "wh",
        "ite"
      ],
      [
        "lar",
        "ge"
      ],
      [
        "f",
        "le"
      ],
      [
        "t",
        "ro"
      ],
      [
        "be",
        "low"
      ],
      [
        "pl",
        "ate"
      ],
      [
        "c",
        "es"
      ],
      [
        "c",
        "ri"
      ],
      [
        "k",
        "new"
      ],
      [
        "t",
        "able"
      ],
      [
        "v",
        "alley"
      ],
      [
        "qu",
        "i"
      ],
      [
        "gu",
        "ess"
      ],
      [
        "vo",
        "ice"
      ],
      [
        "B",
        "alin"
      ],
      [
        "H",
        "is"
      ],
      [
        "R",
        "o"
      ],
      [
        "b",
        "ird"
      ],
      [
        "c",
        "ed"
      ],
      [
        "f",
        "our"
      ],
      [
        "f",
        "ront"
      ],
      [
        "h",
        "ur"
      ],
      [
        "h",
        "um"
      ],
      [
        "t",
        "in"
      ],
      [
        "er",
        "y"
      ],
      [
        "he",
        "n"
      ],
      [
        "wi",
        "z"
      ],
      [
        "us",
        "hed"
      ],
      [
        "ca",
        "use"
      ],
      [
        "bet",
        "ter"
      ],
      [
        "ple",
        "as"
      ],
      [
        "k",
        "ind"
      ],
      [
        "en",
        "ti"
      ],
      [
        "mo",
        "on"
      ],
      [
        "again",
        "st"
      ],
      [
        "tun",
        "ne"
      ],
      [
        "plate",
        "au"
      ],
      [
        "e",
        "ag"
      ],
      [
        "e",
        "red"
      ],
      [
        "h",
        "er"
      ],
      [
        "l",
        "ad"
      ],
      [
        "l",
        "ake"
      ],
      [
        "n",
        "ed"
      ],
      [
        "o",
        "me"
      ],
      [
        "ou",
        "se"
      ],
      [
        "un",
        "g"
      ],
      [
        "ke",
        "ep"
      ],
      [
        "co",
        "ld"
      ],
      [
        "ne",
        "xt"
      ],
      [
        "hap",
        "s"
      ],
      [
        "pass",
        "ed"
      ],
      [
        "f",
        "lo"
      ],
      [
        "m",
        "in"
      ],
      [
        "le",
        "ep"
      ],
      [
        "st",
        "ep"
      ],
      [
        "ho",
        "ld"
      ],
      [
        "Indi",
        "ans"
      ],
      [
        "T",
        "o"
      ],
      [
        "f",
        "air"
      ],
      [
        "s",
        "n"
      ],
      [
        "in",
        "ter"
      ],
      [
        "me",
        "an"
      ],
      [
        "ve",
        "red"
      ],
      [
        "ut",
        "e"
      ],
      [
        "bl",
        "ed"
      ],
      [
        "how",
        "ever"
      ],
      [
        "cli",
        "mb"
      ],
      [
        "W",
        "h"
      ],
      [
        "b",
        "er"
      ],
      [
        "b",
        "es"
      ],
      [
        "p",
        "ers"
      ],
      [
        "as",
        "h"
      ],
      [
        "as",
        "sa"
      ],
      [
        "for",
        "m"
      ],
      [
        "for",
        "ward"
      ],
      [
        "il",
        "es"
      ],
      [
        "ul",
        "ar"
      ],
      [
        "word",
        "s"
      ],
      [
        "Be",
        "orn"
      ],
      [
        "dire",
        "ction"
      ],
      [
        "W",
        "hen"
      ],
      [
        "s",
        "ign"
      ],
      [
        "v",
        "is"
      ],
      [
        "ar",
        "m"
      ],
      [
        "ti",
        "mes"
      ],
      [
        "ne",
        "ed"
      ],
      [
        "con",
        "d"
      ],
      [
        "pre",
        "ss"
      ],
      [
        "str",
        "ong"
      ],
      [
        "bre",
        "ak"
      ],
      [
        "stre",
        "am"
      ],
      [
        "doub",
        "t"
      ],
      [
        "S",
        "outh"
      ],
      [
        "b",
        "ig"
      ],
      [
        "w",
        "al"
      ],
      [
        "as",
        "k"
      ],
      [
        "ch",
        "ing"
      ],
      [
        "fe",
        "lt"
      ],
      [
        "qu",
        "estion"
      ],
      [
        "im",
        "p"
      ],
      [
        "loo",
        "king"
      ],
      [
        "pre",
        "ci"
      ],
      [
        "itt",
        "ing"
      ],
      [
        "mat",
        "ter"
      ],
      [
        "cer",
        "tain"
      ],
      [
        "wiz",
        "ard"
      ],
      [
        "b",
        "ank"
      ],
      [
        "j",
        "our"
      ],
      [
        "t",
        "ri"
      ],
      [
        "in",
        "ess"
      ],
      [
        "re",
        "turn"
      ],
      [
        "le",
        "ast"
      ],
      [
        "sa",
        "fe"
      ],
      [
        "my",
        "self"
      ],
      [
        "de",
        "ad"
      ],
      [
        "end",
        "ed"
      ],
      [
        "ear",
        "s"
      ],
      [
        "appe",
        "ared"
      ],
      [
        "call",
        "ed"
      ],
      [
        "c",
        "u"
      ],
      [
        "d",
        "ro"
      ],
      [
        "e",
        "v"
      ],
      [
        "e",
        "at"
      ],
      [
        "o",
        "c"
      ],
      [
        "or",
        "i"
      ],
      [
        "wi",
        "ld"
      ],
      [
        "ain",
        "ed"
      ],
      [
        "fe",
        "ar"
      ],
      [
        "ca",
        "re"
      ],
      [
        "chi",
        "ef"
      ],
      [
        "kn",
        "own"
      ],
      [
        "W",
        "i"
      ],
      [
        "s",
        "he"
      ],
      [
        "w",
        "ant"
      ],
      [
        "so",
        "l"
      ],
      [
        "bo",
        "dy"
      ],
      [
        "gr",
        "y"
      ],
      [
        "com",
        "for"
      ],
      [
        "get",
        "ting"
      ],
      [
        "mb",
        "ur"
      ],
      [
        "No",
        "t"
      ],
      [
        "pr",
        "is"
      ],
      [
        "Bo",
        "mbur"
      ],
      [
        "f",
        "ter"
      ],
      [
        "s",
        "ort"
      ],
      [
        "y",
        "e"
      ],
      [
        "es",
        "ca"
      ],
      [
        "be",
        "lie"
      ],
      [
        "ly",
        "ing"
      ],
      [
        "creature",
        "s"
      ],
      [
        "A",
        "fter"
      ],
      [
        "B",
        "ard"
      ],
      [
        "a",
        "ut"
      ],
      [
        "b",
        "ow"
      ],
      [
        "b",
        "est"
      ],
      [
        "e",
        "as"
      ],
      [
        "r",
        "an"
      ],
      [
        "w",
        "his"
      ],
      [
        "w",
        "ide"
      ],
      [
        "to",
        "ld"
      ],
      [
        "bo",
        "th"
      ],
      [
        "pre",
        "sent"
      ],
      [
        "H",
        "ow"
      ],
      [
        "L",
        "ake"
      ],
      [
        "f",
        "ur"
      ],
      [
        "f",
        "act"
      ],
      [
        "s",
        "w"
      ],
      [
        "s",
        "li"
      ],
      [
        "s",
        "ong"
      ],
      [
        "u",
        "ally"
      ],
      [
        "re",
        "p"
      ],
      [
        "as",
        "ure"
      ],
      [
        "be",
        "y"
      ],
      [
        "mo",
        "ve"
      ],
      [
        "sh",
        "out"
      ],
      [
        "hor",
        "rible"
      ],
      [
        "dr",
        "aw"
      ],
      [
        "ak",
        "en"
      ],
      [
        "wood",
        "s"
      ],
      [
        "hard",
        "ly"
      ],
      [
        "i",
        "ther"
      ],
      [
        "l",
        "ine"
      ],
      [
        "n",
        "er"
      ],
      [
        "s",
        "ir"
      ],
      [
        "u",
        "ght"
      ],
      [
        "in",
        "deed"
      ],
      [
        "ar",
        "p"
      ],
      [
        "le",
        "gs"
      ],
      [
        "be",
        "cause"
      ],
      [
        "ac",
        "hed"
      ],
      [
        "ho",
        "me"
      ],
      [
        "ne",
        "y"
      ],
      [
        "ck",
        "ed"
      ],
      [
        "sh",
        "ow"
      ],
      [
        "c",
        "ir"
      ],
      [
        "p",
        "es"
      ],
      [
        "u",
        "b"
      ],
      [
        "ca",
        "ught"
      ],
      [
        "any",
        "thing"
      ],
      [
        "gre",
        "w"
      ],
      [
        "gr",
        "ow"
      ],
      [
        "sup",
        "pose"
      ],
      [
        "dif",
        "fic"
      ],
      [
        "slow",
        "ly"
      ],
      [
        "pers",
        "on"
      ],
      [
        "jour",
        "ney"
      ],
      [
        "M",
        "y"
      ],
      [
        "e",
        "ld"
      ],
      [
        "g",
        "es"
      ],
      [
        "l",
        "au"
      ],
      [
        "n",
        "ar"
      ],
      [
        "p",
        "ic"
      ],
      [
        "y",
        "s"
      ],
      [
        "an",
        "im"
      ],
      [
        "re",
        "al"
      ],
      [
        "me",
        "et"
      ],
      [
        "be",
        "ard"
      ],
      [
        "ro",
        "ad"
      ],
      [
        "ch",
        "o"
      ],
      [
        "ch",
        "ar"
      ],
      [
        "um",
        "p"
      ],
      [
        "ins",
        "ide"
      ],
      [
        "coun",
        "t"
      ],
      [
        "pon",
        "ies"
      ],
      [
        "poss",
        "ible"
      ],
      [
        "a",
        "pe"
      ],
      [
        "c",
        "ess"
      ],
      [
        "f",
        "ood"
      ],
      [
        "h",
        "our"
      ],
      [
        "r",
        "ather"
      ],
      [
        "v",
        "an"
      ],
      [
        "ag",
        "o"
      ],
      [
        "qu",
        "e"
      ],
      [
        "coun",
        "try"
      ],
      [
        "iz",
        "e"
      ],
      [
        "tunne",
        "l"
      ],
      [
        "anim",
        "al"
      ],
      [
        "F",
        "ili"
      ],
      [
        "a",
        "the"
      ],
      [
        "h",
        "ouse"
      ],
      [
        "m",
        "iles"
      ],
      [
        "o",
        "d"
      ],
      [
        "s",
        "lo"
      ],
      [
        "s",
        "itting"
      ],
      [
        "en",
        "se"
      ],
      [
        "co",
        "vered"
      ],
      [
        "bo",
        "at"
      ],
      [
        "appe",
        "ar"
      ],
      [
        "bus",
        "iness"
      ],
      [
        "cha",
        "ir"
      ],
      [
        "E",
        "l"
      ],
      [
        "n",
        "at"
      ],
      [
        "s",
        "cr"
      ],
      [
        "re",
        "as"
      ],
      [
        "beg",
        "in"
      ],
      [
        "full",
        "y"
      ],
      [
        "sho",
        "t"
      ],
      [
        "bran",
        "ches"
      ],
      [
        "qui",
        "et"
      ],
      [
        "belie",
        "ve"
      ],
      [
        "bey",
        "ond"
      ],
      [
        "A",
        "l"
      ],
      [
        "B",
        "y"
      ],
      [
        "S",
        "u"
      ],
      [
        "f",
        "in"
      ],
      [
        "f",
        "re"
      ],
      [
        "n",
        "ame"
      ],
      [
        "r",
        "is"
      ],
      [
        "s",
        "wi"
      ],
      [
        "le",
        "ave"
      ],
      [
        "ro",
        "pe"
      ],
      [
        "ne",
        "are"
      ],
      [
        "fe",
        "ren"
      ],
      [
        "po",
        "c"
      ],
      [
        "pl",
        "ain"
      ],
      [
        "can",
        "not"
      ],
      [
        "tre",
        "asure"
      ],
      [
        "even",
        "ing"
      ],
      [
        "xt",
        "on"
      ],
      [
        "comp",
        "an"
      ],
      [
        "reme",
        "mber"
      ],
      [
        "Ro",
        "xton"
      ],
      [
        "T",
        "H"
      ],
      [
        "f",
        "low"
      ],
      [
        "g",
        "ed"
      ],
      [
        "l",
        "uck"
      ],
      [
        "m",
        "ag"
      ],
      [
        "r",
        "or"
      ],
      [
        "s",
        "mo"
      ],
      [
        "s",
        "pl"
      ],
      [
        "th",
        "ick"
      ],
      [
        "ar",
        "ms"
      ],
      [
        "le",
        "a"
      ],
      [
        "do",
        "es"
      ],
      [
        "pl",
        "an"
      ],
      [
        "wor",
        "k"
      ],
      [
        "ans",
        "w"
      ],
      [
        "tal",
        "k"
      ],
      [
        "near",
        "ly"
      ],
      [
        "dist",
        "ance"
      ],
      [
        "D",
        "on"
      ],
      [
        "O",
        "ne"
      ],
      [
        "f",
        "ather"
      ],
      [
        "k",
        "ill"
      ],
      [
        "w",
        "ish"
      ],
      [
        "en",
        "er"
      ],
      [
        "it",
        "ion"
      ],
      [
        "co",
        "ll"
      ],
      [
        "fi",
        "lled"
      ],
      [
        "op",
        "ened"
      ],
      [
        "gu",
        "ard"
      ],
      [
        "rock",
        "s"
      ],
      [
        "dre",
        "am"
      ],
      [
        "ene",
        "ath"
      ],
      [
        "A",
        "mer"
      ],
      [
        "g",
        "ri"
      ],
      [
        "p",
        "assa"
      ],
      [
        "s",
        "word"
      ],
      [
        "be",
        "ar"
      ],
      [
        "ro",
        "om"
      ],
      [
        "ho",
        "le"
      ],
      [
        "whe",
        "ther"
      ],
      [
        "sh",
        "ort"
      ],
      [
        "bl",
        "ue"
      ],
      [
        "br",
        "ing"
      ],
      [
        "im",
        "ag"
      ],
      [
        "ic",
        "al"
      ],
      [
        "dark",
        "ness"
      ],
      [
        "fell",
        "ow"
      ],
      [
        "vo",
        "l"
      ],
      [
        "hear",
        "t"
      ],
      [
        "foo",
        "t"
      ],
      [
        "bar",
        "re"
      ],
      [
        "Amer",
        "i"
      ],
      [
        "C",
        "ome"
      ],
      [
        "c",
        "ross"
      ],
      [
        "i",
        "le"
      ],
      [
        "m",
        "aking"
      ],
      [
        "r",
        "a"
      ],
      [
        "s",
        "hi"
      ],
      [
        "s",
        "ight"
      ],
      [
        "s",
        "leep"
      ],
      [
        "t",
        "aken"
      ],
      [
        "in",
        "te"
      ],
      [
        "he",
        "ld"
      ],
      [
        "ll",
        "ing"
      ],
      [
        "st",
        "ones"
      ],
      [
        "id",
        "ent"
      ],
      [
        "ag",
        "ed"
      ],
      [
        "con",
        "f"
      ],
      [
        "long",
        "er"
      ],
      [
        "dwar",
        "f"
      ],
      [
        "cr",
        "y"
      ],
      [
        "ation",
        "s"
      ],
      [
        "head",
        "s"
      ],
      [
        "land",
        "s"
      ],
      [
        "sil",
        "ver"
      ],
      [
        "att",
        "le"
      ],
      [
        "flo",
        "or"
      ],
      [
        "b",
        "eneath"
      ],
      [
        "e",
        "w"
      ],
      [
        "g",
        "ro"
      ],
      [
        "n",
        "um"
      ],
      [
        "p",
        "ri"
      ],
      [
        "s",
        "or"
      ],
      [
        "in",
        "ing"
      ],
      [
        "re",
        "ly"
      ],
      [
        "or",
        "m"
      ],
      [
        "le",
        "ad"
      ],
      [
        "al",
        "most"
      ],
      [
        "ab",
        "ly"
      ],
      [
        "ey",
        "e"
      ],
      [
        "clo",
        "se"
      ],
      [
        "f",
        "right"
      ],
      [
        "r",
        "ain"
      ],
      [
        "w",
        "and"
      ],
      [
        "y",
        "es"
      ],
      [
        "be",
        "ast"
      ],
      [
        "id",
        "es"
      ],
      [
        "out",
        "side"
      ],
      [
        "il",
        "ed"
      ],
      [
        "po",
        "or"
      ],
      [
        "te",
        "en"
      ],
      [
        "car",
        "ried"
      ],
      [
        "iz",
        "ed"
      ],
      [
        "dif",
        "feren"
      ],
      [
        "feel",
        "ing"
      ],
      [
        "inte",
        "rest"
      ],
      [
        "d",
        "read"
      ],
      [
        "i",
        "ves"
      ],
      [
        "l",
        "k"
      ],
      [
        "l",
        "ate"
      ],
      [
        "p",
        "ick"
      ],
      [
        "t",
        "all"
      ],
      [
        "u",
        "ff"
      ],
      [
        "li",
        "ved"
      ],
      [
        "ad",
        "d"
      ],
      [
        "with",
        "in"
      ],
      [
        "con",
        "s"
      ],
      [
        "el",
        "se"
      ],
      [
        "under",
        "stand"
      ],
      [
        "car",
        "ry"
      ],
      [
        "wh",
        "y"
      ],
      [
        "rem",
        "ark"
      ],
      [
        "open",
        "ing"
      ],
      [
        "fur",
        "ther"
      ],
      [
        "answ",
        "er"
      ],
      [
        "A",
        "r"
      ],
      [
        "E",
        "R"
      ],
      [
        "E",
        "ven"
      ],
      [
        "F",
        "rom"
      ],
      [
        "N",
        "or"
      ],
      [
        "c",
        "at"
      ],
      [
        "c",
        "ut"
      ],
      [
        "d",
        "ri"
      ],
      [
        "t",
        "ent"
      ],
      [
        "v",
        "al"
      ],
      [
        "en",
        "g"
      ],
      [
        "en",
        "orm"
      ],
      [
        "it",
        "ed"
      ],
      [
        "ch",
        "ance"
      ],
      [
        "them",
        "selves"
      ],
      [
        "de",
        "red"
      ],
      [
        "ap",
        "ped"
      ],
      [
        "end",
        "ing"
      ],
      [
        "ex",
        "p"
      ],
      [
        "gr",
        "ass"
      ],
      [
        "per",
        "i"
      ],
      [
        "spe",
        "ak"
      ],
      [
        "preci",
        "ous"
      ],
      [
        "reas",
        "on"
      ],
      [
        "enorm",
        "ous"
      ],
      [
        "L",
        "et"
      ],
      [
        "b",
        "ad"
      ],
      [
        "p",
        "ack"
      ],
      [
        "s",
        "we"
      ],
      [
        "t",
        "w"
      ],
      [
        "er",
        "t"
      ],
      [
        "ha",
        "ir"
      ],
      [
        "le",
        "ap"
      ],
      [
        "st",
        "ant"
      ],
      [
        "be",
        "aut"
      ],
      [
        "The",
        "ir"
      ],
      [
        "ca",
        "ves"
      ],
      [
        "ex",
        "c"
      ],
      [
        "tr",
        "ue"
      ],
      [
        "ide",
        "a"
      ],
      [
        "br",
        "id"
      ],
      [
        "ci",
        "ally"
      ],
      [
        "per",
        "haps"
      ],
      [
        "So",
        "on"
      ],
      [
        "gobl",
        "in"
      ],
      [
        "sto",
        "pped"
      ],
      [
        "vi",
        "ew"
      ],
      [
        "des",
        "cri"
      ],
      [
        "cas",
        "e"
      ],
      [
        "spo",
        "ke"
      ],
      [
        "expe",
        "ct"
      ],
      [
        "Wi",
        "th"
      ],
      [
        ")",
        ","
      ],
      [
        "F",
        "o"
      ],
      [
        "g",
        "un"
      ],
      [
        "g",
        "ent"
      ],
      [
        "g",
        "ate"
      ],
      [
        "h",
        "ood"
      ],
      [
        "p",
        "ow"
      ],
      [
        "p",
        "ur"
      ],
      [
        "y",
        "ears"
      ],
      [
        "at",
        "er"
      ],
      [
        "se",
        "ver"
      ],
      [
        "id",
        "ers"
      ],
      [
        "for",
        "got"
      ],
      [
        "ke",
        "pt"
      ],
      [
        "ag",
        "es"
      ],
      [
        "fe",
        "ct"
      ],
      [
        "ca",
        "ve"
      ],
      [
        "He",
        "re"
      ],
      [
        "tr",
        "u"
      ],
      [
        "tr",
        "ou"
      ],
      [
        "shad",
        "ow"
      ],
      [
        "shad",
        "ows"
      ],
      [
        "expe",
        "cted"
      ],
      [
        "adventure",
        "s"
      ],
      [
        "break",
        "fast"
      ],
      [
        "sever",
        "al"
      ],
      [
        "K",
        "ili"
      ],
      [
        "M",
        "alone"
      ],
      [
        "O",
        "f"
      ],
      [
        "b",
        "u"
      ],
      [
        "h",
        "ang"
      ],
      [
        "i",
        "x"
      ],
      [
        "n",
        "y"
      ],
      [
        "n",
        "one"
      ],
      [
        "r",
        "ang"
      ],
      [
        "re",
        "ached"
      ],
      [
        "at",
        "ing"
      ],
      [
        "le",
        "ar"
      ],
      [
        "st",
        "er"
      ],
      [
        "be",
        "red"
      ],
      [
        "no",
        "ise"
      ],
      [
        "de",
        "al"
      ],
      [
        "fo",
        "lk"
      ],
      [
        "lo",
        "g"
      ],
      [
        "bl",
        "ing"
      ],
      [
        "fi",
        "ve"
      ],
      [
        "let",
        "ter"
      ],
      [
        "bro",
        "ken"
      ],
      [
        "enti",
        "fic"
      ],
      [
        "Wh",
        "y"
      ],
      [
        "bes",
        "ide"
      ],
      [
        "begin",
        "ning"
      ],
      [
        "D",
        "ori"
      ],
      [
        "H",
        "A"
      ],
      [
        "R",
        "i"
      ],
      [
        "W",
        "here"
      ],
      [
        "c",
        "ing"
      ],
      [
        "f",
        "er"
      ],
      [
        "g",
        "le"
      ],
      [
        "l",
        "it"
      ],
      [
        "m",
        "id"
      ],
      [
        "m",
        "outh"
      ],
      [
        "p",
        "in"
      ],
      [
        "p",
        "at"
      ],
      [
        "s",
        "me"
      ],
      [
        "u",
        "al"
      ],
      [
        "an",
        "ted"
      ],
      [
        "an",
        "gry"
      ],
      [
        "he",
        "av"
      ],
      [
        "is",
        "ed"
      ],
      [
        "se",
        "cre"
      ],
      [
        "The",
        "se"
      ],
      [
        "ke",
        "ts"
      ],
      [
        "were",
        "d"
      ],
      [
        "if",
        "ul"
      ],
      [
        "sp",
        "iders"
      ],
      [
        "cr",
        "ack"
      ],
      [
        "vi",
        "ce"
      ],
      [
        "Go",
        "bl"
      ],
      [
        "fall",
        "en"
      ],
      [
        "sk",
        "y"
      ],
      [
        "sci",
        "entific"
      ],
      [
        "hum",
        "an"
      ],
      [
        "pris",
        "on"
      ],
      [
        "D",
        "ale"
      ],
      [
        "M",
        "aster"
      ],
      [
        "W",
        "ill"
      ],
      [
        "l",
        "oud"
      ],
      [
        "n",
        "s"
      ],
      [
        "s",
        "on"
      ],
      [
        "or",
        "s"
      ],
      [
        "bo",
        "t"
      ],
      [
        "um",
        "bled"
      ],
      [
        "ast",
        "y"
      ],
      [
        "ex",
        "peri"
      ],
      [
        "tr",
        "un"
      ],
      [
        "see",
        "m"
      ],
      [
        "cas",
        "ion"
      ],
      [
        "gi",
        "ven"
      ],
      [
        "idd",
        "le"
      ],
      [
        "je",
        "ct"
      ],
      [
        "bird",
        "s"
      ],
      [
        "b",
        "right"
      ],
      [
        "b",
        "attle"
      ],
      [
        "d",
        "u"
      ],
      [
        "o",
        "l"
      ],
      [
        "or",
        "der"
      ],
      [
        "it",
        "self"
      ],
      [
        "am",
        "es"
      ],
      [
        "ca",
        "p"
      ],
      [
        "po",
        "sit"
      ],
      [
        "tr",
        "a"
      ],
      [
        "ment",
        "s"
      ],
      [
        "ans",
        "wered"
      ],
      [
        "dden",
        "ly"
      ],
      [
        "az",
        "e"
      ],
      [
        "dre",
        "w"
      ],
      [
        "wonder",
        "ful"
      ],
      [
        "comfor",
        "table"
      ],
      [
        "shout",
        "ed"
      ],
      [
        "Su",
        "ddenly"
      ],
      [
        "gle",
        "am"
      ],
      [
        "heav",
        "y"
      ],
      [
        "V",
        "ery"
      ],
      [
        "a",
        "ld"
      ],
      [
        "a",
        "im"
      ],
      [
        "b",
        "oo"
      ],
      [
        "e",
        "le"
      ],
      [
        "f",
        "am"
      ],
      [
        "f",
        "if"
      ],
      [
        "g",
        "ure"
      ],
      [
        "g",
        "ener"
      ],
      [
        "u",
        "ri"
      ],
      [
        "at",
        "ive"
      ],
      [
        "as",
        "hed"
      ],
      [
        "of",
        "ten"
      ],
      [
        "be",
        "came"
      ],
      [
        "li",
        "c"
      ],
      [
        "co",
        "l"
      ],
      [
        "sh",
        "arp"
      ],
      [
        "fi",
        "gure"
      ],
      [
        "su",
        "b"
      ],
      [
        "ate",
        "ly"
      ],
      [
        "sp",
        "ring"
      ],
      [
        "pre",
        "t"
      ],
      [
        "wo",
        "lves"
      ],
      [
        "wat",
        "ch"
      ],
      [
        "gl",
        "ar"
      ],
      [
        "bus",
        "hes"
      ],
      [
        "follow",
        "ed"
      ],
      [
        "athe",
        "red"
      ],
      [
        "beaut",
        "iful"
      ],
      [
        "G",
        "re"
      ],
      [
        "G",
        "ood"
      ],
      [
        "O",
        "ur"
      ],
      [
        "W",
        "ho"
      ],
      [
        "d",
        "are"
      ],
      [
        "e",
        "ither"
      ],
      [
        "g",
        "loo"
      ],
      [
        "g",
        "athered"
      ],
      [
        "l",
        "aid"
      ],
      [
        "t",
        "ou"
      ],
      [
        "ro",
        "se"
      ],
      [
        "ac",
        "count"
      ],
      [
        "al",
        "ive"
      ],
      [
        "ri",
        "fle"
      ],
      [
        "am",
        "id"
      ],
      [
        "il",
        "ing"
      ],
      [
        "ord",
        "in"
      ],
      [
        "sha",
        "re"
      ],
      [
        "sil",
        "ent"
      ],
      [
        "ob",
        "ser"
      ],
      [
        "certain",
        "ly"
      ],
      [
        "oc",
        "casion"
      ],
      [
        "lau",
        "gh"
      ],
      [
        "nar",
        "row"
      ],
      [
        "differen",
        "t"
      ],
      [
        "cons",
        "ider"
      ],
      [
        "brid",
        "ge"
      ],
      [
        ")",
        "."
      ],
      [
        "I",
        "I"
      ],
      [
        "P",
        "er"
      ],
      [
        "e",
        "k"
      ],
      [
        "e",
        "m"
      ],
      [
        "f",
        "r"
      ],
      [
        "m",
        "ap"
      ],
      [
        "p",
        "ast"
      ],
      [
        "s",
        "ion"
      ],
      [
        "s",
        "ize"
      ],
      [
        "t",
        "on"
      ],
      [
        "re",
        "g"
      ],
      [
        "at",
        "tered"
      ],
      [
        "ar",
        "t"
      ],
      [
        "ar",
        "ch"
      ],
      [
        "ha",
        "ving"
      ],
      [
        "se",
        "cond"
      ],
      [
        "hi",
        "ll"
      ],
      [
        "ain",
        "t"
      ],
      [
        "ne",
        "ck"
      ],
      [
        "um",
        "ped"
      ],
      [
        "there",
        "fore"
      ],
      [
        "pl",
        "aces"
      ],
      [
        "te",
        "e"
      ],
      [
        "ic",
        "es"
      ],
      [
        "str",
        "a"
      ],
      [
        "gl",
        "ad"
      ],
      [
        "ear",
        "th"
      ],
      [
        "sil",
        "ence"
      ],
      [
        "pi",
        "e"
      ],
      [
        "diffic",
        "ult"
      ],
      [
        "dread",
        "ful"
      ],
      [
        "secre",
        "t"
      ],
      [
        "E",
        "n"
      ],
      [
        "O",
        "R"
      ],
      [
        "Y",
        "es"
      ],
      [
        "c",
        "us"
      ],
      [
        "s",
        "es"
      ],
      [
        "t",
        "ure"
      ],
      [
        "th",
        "ro"
      ],
      [
        "st",
        "ick"
      ],
      [
        "we",
        "l"
      ],
      [
        "ce",
        "ed"
      ],
      [
        "ter",
        "rible"
      ],
      [
        "de",
        "ar"
      ],
      [
        "lo",
        "t"
      ],
      [
        "ex",
        "ped"
      ],
      [
        "fi",
        "ght"
      ],
      [
        "te",
        "m"
      ],
      [
        "like",
        "ly"
      ],
      [
        "con",
        "tin"
      ],
      [
        "cl",
        "aim"
      ],
      [
        "wor",
        "th"
      ],
      [
        "par",
        "ts"
      ],
      [
        "new",
        "s"
      ],
      [
        "run",
        "ning"
      ],
      [
        "Indi",
        "an"
      ],
      [
        "wait",
        "ing"
      ],
      [
        "danger",
        "ous"
      ],
      [
        "exce",
        "pt"
      ],
      [
        "TH",
        "E"
      ],
      [
        "mag",
        "ic"
      ],
      [
        "Nor",
        "th"
      ],
      [
        "G",
        "ate"
      ],
      [
        "M",
        "ir"
      ],
      [
        "b",
        "b"
      ],
      [
        "c",
        "y"
      ],
      [
        "f",
        "at"
      ],
      [
        "h",
        "on"
      ],
      [
        "i",
        "am"
      ],
      [
        "l",
        "aug"
      ],
      [
        "n",
        "i"
      ],
      [
        "n",
        "asty"
      ],
      [
        "r",
        "ad"
      ],
      [
        "r",
        "ows"
      ],
      [
        "t",
        "led"
      ],
      [
        "t",
        "ried"
      ],
      [
        "u",
        "red"
      ],
      [
        "y",
        "ed"
      ],
      [
        "an",
        "ts"
      ],
      [
        "re",
        "ach"
      ],
      [
        "at",
        "es"
      ],
      [
        "st",
        "ay"
      ],
      [
        "id",
        "ence"
      ],
      [
        "li",
        "ve"
      ],
      [
        "for",
        "th"
      ],
      [
        "un",
        "d"
      ],
      [
        "ght",
        "er"
      ],
      [
        "sa",
        "ve"
      ],
      [
        "fi",
        "er"
      ],
      [
        "star",
        "ted"
      ],
      [
        "mon",
        "str"
      ],
      [
        "guess",
        "ed"
      ],
      [
        "esca",
        "pe"
      ],
      [
        "song",
        "s"
      ],
      [
        "swi",
        "ft"
      ],
      [
        "exp",
        "lo"
      ],
      [
        "trou",
        "ble"
      ],
      [
        "Ri",
        "ver"
      ],
      [
        "laug",
        "hed"
      ],
      [
        ".",
        ")"
      ],
      [
        "M",
        "o"
      ],
      [
        "b",
        "urn"
      ],
      [
        "c",
        "or"
      ],
      [
        "e",
        "lf"
      ],
      [
        "e",
        "mp"
      ],
      [
        "f",
        "ac"
      ],
      [
        "g",
        "li"
      ],
      [
        "i",
        "ed"
      ],
      [
        "p",
        "s"
      ],
      [
        "p",
        "al"
      ],
      [
        "p",
        "ter"
      ],
      [
        "r",
        "ough"
      ],
      [
        "r",
        "ace"
      ],
      [
        "t",
        "aking"
      ],
      [
        "w",
        "ings"
      ],
      [
        "in",
        "cl"
      ],
      [
        "he",
        "ight"
      ],
      [
        "me",
        "ant"
      ],
      [
        "al",
        "th"
      ],
      [
        "li",
        "ar"
      ],
      [
        "sh",
        "ri"
      ],
      [
        "lo",
        "ve"
      ],
      [
        "tr",
        "ave"
      ],
      [
        "au",
        "di"
      ],
      [
        "led",
        "ge"
      ],
      [
        "door",
        "s"
      ],
      [
        "poin",
        "ted"
      ],
      [
        "rem",
        "ain"
      ],
      [
        "stand",
        "ing"
      ],
      [
        "climb",
        "ed"
      ],
      [
        "sli",
        "pped"
      ],
      [
        "lea",
        "ves"
      ],
      [
        "passa",
        "ge"
      ],
      [
        "Will",
        "iam"
      ],
      [
        "ordin",
        "ary"
      ],
      [
        "stra",
        "ight"
      ],
      [
        ".",
        "'"
      ],
      [
        "B",
        "ert"
      ],
      [
        "D",
        "ain"
      ],
      [
        "G",
        "lad"
      ],
      [
        "J",
        "ust"
      ],
      [
        "K",
        "ing"
      ],
      [
        "Q",
        "u"
      ],
      [
        "a",
        "h"
      ],
      [
        "f",
        "ing"
      ],
      [
        "f",
        "ine"
      ],
      [
        "f",
        "lying"
      ],
      [
        "i",
        "re"
      ],
      [
        "k",
        "wood"
      ],
      [
        "l",
        "an"
      ],
      [
        "l",
        "er"
      ],
      [
        "m",
        "ark"
      ],
      [
        "p",
        "ale"
      ],
      [
        "r",
        "ushed"
      ],
      [
        "s",
        "ix"
      ],
      [
        "y",
        "ards"
      ],
      [
        "in",
        "stant"
      ],
      [
        "re",
        "f"
      ],
      [
        "es",
        "pe"
      ],
      [
        "ro",
        "ar"
      ],
      [
        "ac",
        "ty"
      ],
      [
        "ut",
        "es"
      ],
      [
        "li",
        "es"
      ],
      [
        "co",
        "ver"
      ],
      [
        "our",
        "selves"
      ],
      [
        "mo",
        "ved"
      ],
      [
        "sh",
        "ining"
      ],
      [
        "do",
        "ing"
      ],
      [
        "sp",
        "ir"
      ],
      [
        "dr",
        "y"
      ],
      [
        "str",
        "u"
      ],
      [
        "fell",
        "ah"
      ],
      [
        "spe",
        "ct"
      ],
      [
        "hun",
        "g"
      ],
      [
        "sing",
        "le"
      ],
      [
        "mar",
        "ked"
      ],
      [
        "gold",
        "en"
      ],
      [
        "tor",
        "ches"
      ],
      [
        "happ",
        "ened"
      ],
      [
        "sure",
        "ly"
      ],
      [
        "tro",
        "lls"
      ],
      [
        "eas",
        "y"
      ],
      [
        "cir",
        "cle"
      ],
      [
        "od",
        "acty"
      ],
      [
        "barre",
        "ls"
      ],
      [
        "forgot",
        "ten"
      ],
      [
        "posit",
        "ion"
      ],
      [
        "gener",
        "al"
      ],
      [
        "Gre",
        "at"
      ],
      [
        "Mir",
        "kwood"
      ],
      [
        "pter",
        "odacty"
      ],
      [
        "Glad",
        "ys"
      ],
      [
        "C",
        "HA"
      ],
      [
        "I",
        "N"
      ],
      [
        "W",
        "est"
      ],
      [
        "b",
        "ook"
      ],
      [
        "d",
        "im"
      ],
      [
        "p",
        "ap"
      ],
      [
        "t",
        "le"
      ],
      [
        "at",
        "s"
      ],
      [
        "he",
        "a"
      ],
      [
        "is",
        "ten"
      ],
      [
        "st",
        "ri"
      ],
      [
        "me",
        "t"
      ],
      [
        "ti",
        "ve"
      ],
      [
        "ent",
        "r"
      ],
      [
        "sh",
        "ut"
      ],
      [
        "tr",
        "ack"
      ],
      [
        "tr",
        "ust"
      ],
      [
        "com",
        "es"
      ],
      [
        "par",
        "ty"
      ],
      [
        "ear",
        "ly"
      ],
      [
        "ron",
        "d"
      ],
      [
        "tal",
        "king"
      ],
      [
        "star",
        "s"
      ],
      [
        "happ",
        "en"
      ],
      [
        "eag",
        "er"
      ],
      [
        "step",
        "s"
      ],
      [
        "neare",
        "r"
      ],
      [
        "compan",
        "ions"
      ],
      [
        "smo",
        "ke"
      ],
      [
        "lear",
        "ned"
      ],
      [
        "bot",
        "to"
      ],
      [
        "fier",
        "ce"
      ],
      [
        "audi",
        "ence"
      ],
      [
        "E",
        "x"
      ],
      [
        "M",
        "ap"
      ],
      [
        "S",
        "till"
      ],
      [
        "Y",
        "our"
      ],
      [
        "f",
        "ish"
      ],
      [
        "f",
        "aces"
      ],
      [
        "g",
        "ar"
      ],
      [
        "l",
        "eng"
      ],
      [
        "m",
        "aster"
      ],
      [
        "m",
        "iddle"
      ],
      [
        "p",
        "rom"
      ],
      [
        "r",
        "up"
      ],
      [
        "t",
        "ted"
      ],
      [
        "w",
        "est"
      ],
      [
        "z",
        "z"
      ],
      [
        "in",
        "c"
      ],
      [
        "an",
        "ed"
      ],
      [
        "re",
        "ed"
      ],
      [
        "as",
        "e"
      ],
      [
        "is",
        "ted"
      ],
      [
        "le",
        "g"
      ],
      [
        "ro",
        "o"
      ],
      [
        "ro",
        "lled"
      ],
      [
        "ve",
        "l"
      ],
      [
        "li",
        "ked"
      ],
      [
        "for",
        "tun"
      ],
      [
        "ad",
        "mit"
      ],
      [
        "ab",
        "sol"
      ],
      [
        "de",
        "v"
      ],
      [
        "gr",
        "ap"
      ],
      [
        "par",
        "tic"
      ],
      [
        "gu",
        "ards"
      ],
      [
        "des",
        "c"
      ],
      [
        "clo",
        "sed"
      ],
      [
        "sup",
        "per"
      ],
      [
        "wall",
        "s"
      ],
      [
        "bran",
        "ch"
      ],
      [
        "sci",
        "ence"
      ],
      [
        "pleas",
        "ant"
      ],
      [
        "Wh",
        "ite"
      ],
      [
        "dro",
        "pped"
      ],
      [
        "pic",
        "ture"
      ],
      [
        "meet",
        "ing"
      ],
      [
        "poc",
        "ket"
      ],
      [
        "gri",
        "m"
      ],
      [
        "hang",
        "ing"
      ],
      [
        "prison",
        "ers"
      ],
      [
        "exped",
        "ition"
      ],
      [
        "espe",
        "cially"
      ],
      [
        "Map",
        "le"
      ],
      [
        "absol",
        "ute"
      ],
      [
        "E",
        "ast"
      ],
      [
        "H",
        "ill"
      ],
      [
        "b",
        "ound"
      ],
      [
        "c",
        "orn"
      ],
      [
        "e",
        "z"
      ],
      [
        "i",
        "gh"
      ],
      [
        "o",
        "es"
      ],
      [
        "p",
        "or"
      ],
      [
        "p",
        "ull"
      ],
      [
        "r",
        "aid"
      ],
      [
        "s",
        "y"
      ],
      [
        "t",
        "wi"
      ],
      [
        "t",
        "ched"
      ],
      [
        "w",
        "ise"
      ],
      [
        "th",
        "ous"
      ],
      [
        "re",
        "l"
      ],
      [
        "as",
        "c"
      ],
      [
        "to",
        "ry"
      ],
      [
        "or",
        "ge"
      ],
      [
        "st",
        "uck"
      ],
      [
        "st",
        "ud"
      ],
      [
        "me",
        "ans"
      ],
      [
        "ac",
        "le"
      ],
      [
        "un",
        "ning"
      ],
      [
        "un",
        "known"
      ],
      [
        "ce",
        "i"
      ],
      [
        "am",
        "bo"
      ],
      [
        "ter",
        "ing"
      ],
      [
        "gre",
        "y"
      ],
      [
        "ap",
        "pro"
      ],
      [
        "ex",
        "press"
      ],
      [
        "see",
        "ms"
      ],
      [
        "sp",
        "ider"
      ],
      [
        "im",
        "possible"
      ],
      [
        "tion",
        "s"
      ],
      [
        "cre",
        "pt"
      ],
      [
        "aw",
        "are"
      ],
      [
        "sto",
        "ry"
      ],
      [
        "dragon",
        "s"
      ],
      [
        "Be",
        "fore"
      ],
      [
        "sha",
        "pe"
      ],
      [
        "rem",
        "ained"
      ],
      [
        "nor",
        "th"
      ],
      [
        "ste",
        "ad"
      ],
      [
        "ste",
        "ep"
      ],
      [
        "sk",
        "in"
      ],
      [
        "bur",
        "glar"
      ],
      [
        "hur",
        "ried"
      ],
      [
        "esca",
        "ped"
      ],
      [
        "El",
        "rond"
      ],
      [
        "gent",
        "le"
      ],
      [
        "tru",
        "th"
      ],
      [
        "sme",
        "ll"
      ],
      [
        "partic",
        "ular"
      ],
      [
        "thous",
        "and"
      ],
      [
        "A",
        "m"
      ],
      [
        "D",
        "r"
      ],
      [
        "L",
        "on"
      ],
      [
        "R",
        "e"
      ],
      [
        "T",
        "om"
      ],
      [
        "W",
        "ar"
      ],
      [
        "Z",
        "ambo"
      ],
      [
        "a",
        "x"
      ],
      [
        "e",
        "cho"
      ],
      [
        "g",
        "as"
      ],
      [
        "g",
        "az"
      ],
      [
        "l",
        "in"
      ],
      [
        "m",
        "ut"
      ],
      [
        "m",
        "ad"
      ],
      [
        "p",
        "ho"
      ],
      [
        "p",
        "ushed"
      ],
      [
        "s",
        "qu"
      ],
      [
        "s",
        "que"
      ],
      [
        "t",
        "ale"
      ],
      [
        "v",
        "ar"
      ],
      [
        "ar",
        "med"
      ],
      [
        "id",
        "ed"
      ],
      [
        "ve",
        "lo"
      ],
      [
        "for",
        "med"
      ],
      [
        "oo",
        "l"
      ],
      [
        "ke",
        "y"
      ],
      [
        "lo",
        "in"
      ],
      [
        "some",
        "times"
      ],
      [
        "do",
        "z"
      ],
      [
        "pl",
        "ay"
      ],
      [
        "fi",
        "res"
      ],
      [
        "war",
        "m"
      ],
      [
        "sp",
        "ite"
      ],
      [
        "sp",
        "rang"
      ],
      [
        "tre",
        "m"
      ],
      [
        "mer",
        "ry"
      ],
      [
        "low",
        "er"
      ],
      [
        "dis",
        "covered"
      ],
      [
        "turn",
        "ing"
      ],
      [
        "che",
        "st"
      ],
      [
        "gl",
        "ing"
      ],
      [
        "fl",
        "es"
      ],
      [
        "vo",
        "ices"
      ],
      [
        "bre",
        "ed"
      ],
      [
        "thre",
        "w"
      ],
      [
        "jo",
        "y"
      ],
      [
        "quick",
        "ly"
      ],
      [
        "wal",
        "ked"
      ],
      [
        "cu",
        "ri"
      ],
      [
        "ye",
        "llow"
      ],
      [
        "appear",
        "ance"
      ],
      [
        "El",
        "ven"
      ],
      [
        "kill",
        "ed"
      ],
      [
        "Ameri",
        "ca"
      ],
      [
        "pow",
        "er"
      ],
      [
        "gloo",
        "m"
      ],
      [
        "Per",
        "haps"
      ],
      [
        "emp",
        "ty"
      ],
      [
        "botto",
        "m"
      ],
      [
        "leng",
        "th"
      ],
      [
        "Lon",
        "don"
      ],
      [
        "E",
        "ag"
      ],
      [
        "G",
        "loin"
      ],
      [
        "M",
        "ay"
      ],
      [
        "T",
        "ook"
      ],
      [
        "c",
        "ord"
      ],
      [
        "g",
        "ing"
      ],
      [
        "l",
        "isten"
      ],
      [
        "m",
        "ain"
      ],
      [
        "o",
        "s"
      ],
      [
        "p",
        "ping"
      ],
      [
        "r",
        "ate"
      ],
      [
        "s",
        "us"
      ],
      [
        "s",
        "ne"
      ],
      [
        "s",
        "outh"
      ],
      [
        "t",
        "ail"
      ],
      [
        "w",
        "ished"
      ],
      [
        "in",
        "king"
      ],
      [
        "to",
        "ri"
      ],
      [
        "ll",
        "ent"
      ],
      [
        "st",
        "ate"
      ],
      [
        "me",
        "mor"
      ],
      [
        "be",
        "come"
      ],
      [
        "id",
        "ing"
      ],
      [
        "ac",
        "ter"
      ],
      [
        "no",
        "ti"
      ],
      [
        "ch",
        "ang"
      ],
      [
        "un",
        "less"
      ],
      [
        "oo",
        "log"
      ],
      [
        "ent",
        "s"
      ],
      [
        "am",
        "ed"
      ],
      [
        "pe",
        "red"
      ],
      [
        "de",
        "c"
      ],
      [
        "de",
        "light"
      ],
      [
        "de",
        "ath"
      ],
      [
        "ck",
        "ing"
      ],
      [
        "pl",
        "ans"
      ],
      [
        "ap",
        "s"
      ],
      [
        "ous",
        "ly"
      ],
      [
        "hall",
        "s"
      ],
      [
        "gr",
        "and"
      ],
      [
        "con",
        "v"
      ],
      [
        "com",
        "ple"
      ],
      [
        "who",
        "m"
      ],
      [
        "dr",
        "ink"
      ],
      [
        "str",
        "uck"
      ],
      [
        "cr",
        "ow"
      ],
      [
        "ci",
        "ent"
      ],
      [
        "pro",
        "ceed"
      ],
      [
        "cl",
        "oud"
      ],
      [
        "should",
        "er"
      ],
      [
        "should",
        "ers"
      ],
      [
        "ct",
        "ure"
      ],
      [
        "went",
        "y"
      ],
      [
        "hap",
        "ter"
      ],
      [
        "pr",
        "ise"
      ],
      [
        "mor",
        "row"
      ],
      [
        "act",
        "ly"
      ],
      [
        "act",
        "ually"
      ],
      [
        "cour",
        "age"
      ],
      [
        "ser",
        "vice"
      ],
      [
        "stre",
        "ng"
      ],
      [
        "dre",
        "ss"
      ],
      [
        "sho",
        "re"
      ],
      [
        "att",
        "ack"
      ],
      [
        "happ",
        "y"
      ],
      [
        "reme",
        "m"
      ],
      [
        "thin",
        "king"
      ],
      [
        "foo",
        "l"
      ],
      [
        "cliff",
        "s"
      ],
      [
        "bur",
        "st"
      ],
      [
        "hur",
        "ry"
      ],
      [
        "person",
        "al"
      ],
      [
        "slo",
        "pe"
      ],
      [
        "coll",
        "e"
      ],
      [
        "Fo",
        "rest"
      ],
      [
        "pret",
        "ty"
      ],
      [
        "consider",
        "able"
      ],
      [
        "En",
        "gl"
      ],
      [
        "pap",
        "er"
      ],
      [
        "grap",
        "h"
      ],
      [
        "Elven",
        "king"
      ],
      [
        "I",
        "s"
      ],
      [
        "O",
        "ut"
      ],
      [
        "a",
        "ked"
      ],
      [
        "b",
        "lo"
      ],
      [
        "d",
        "est"
      ],
      [
        "h",
        "ast"
      ],
      [
        "i",
        "b"
      ],
      [
        "k",
        "ne"
      ],
      [
        "m",
        "ine"
      ],
      [
        "n",
        "ature"
      ],
      [
        "p",
        "ort"
      ],
      [
        "s",
        "ou"
      ],
      [
        "s",
        "ummer"
      ],
      [
        "s",
        "ense"
      ],
      [
        "t",
        "wenty"
      ],
      [
        "w",
        "anted"
      ],
      [
        "the",
        "s"
      ],
      [
        "in",
        "t"
      ],
      [
        "an",
        "ces"
      ],
      [
        "er",
        "able"
      ],
      [
        "it",
        "ions"
      ],
      [
        "le",
        "cture"
      ],
      [
        "we",
        "ary"
      ],
      [
        "ro",
        "of"
      ],
      [
        "no",
        "tic"
      ],
      [
        "al",
        "ed"
      ],
      [
        "ch",
        "ange"
      ],
      [
        "li",
        "ving"
      ],
      [
        "ti",
        "red"
      ],
      [
        "oo",
        "th"
      ],
      [
        "ho",
        "st"
      ],
      [
        "bo",
        "x"
      ],
      [
        "fe",
        "ast"
      ],
      [
        "are",
        "well"
      ],
      [
        "sh",
        "ook"
      ],
      [
        "bl",
        "ood"
      ],
      [
        "ust",
        "ed"
      ],
      [
        "br",
        "ain"
      ],
      [
        "su",
        "gg"
      ],
      [
        "who",
        "se"
      ],
      [
        "--",
        "\""
      ],
      [
        "pre",
        "s"
      ],
      [
        "dis",
        "cus"
      ],
      [
        "pro",
        "per"
      ],
      [
        "wor",
        "se"
      ],
      [
        "sm",
        "ile"
      ],
      [
        "sto",
        "res"
      ],
      [
        "bre",
        "ath"
      ],
      [
        "might",
        "y"
      ],
      [
        "sur",
        "face"
      ],
      [
        "bro",
        "ad"
      ],
      [
        "bro",
        "ke"
      ],
      [
        "comp",
        "any"
      ],
      [
        "exce",
        "llent"
      ],
      [
        "diffic",
        "ul"
      ],
      [
        "scr",
        "am"
      ],
      [
        "neare",
        "st"
      ],
      [
        "poc",
        "kets"
      ],
      [
        "Gobl",
        "in"
      ],
      [
        "corn",
        "er"
      ],
      [
        "noti",
        "ce"
      ],
      [
        "remem",
        "bered"
      ],
      [
        "B",
        "of"
      ],
      [
        "D",
        "w"
      ],
      [
        "U",
        "p"
      ],
      [
        "a",
        "head"
      ],
      [
        "d",
        "in"
      ],
      [
        "e",
        "ch"
      ],
      [
        "g",
        "ain"
      ],
      [
        "h",
        "ide"
      ],
      [
        "j",
        "umped"
      ],
      [
        "l",
        "ater"
      ],
      [
        "m",
        "ur"
      ],
      [
        "n",
        "al"
      ],
      [
        "p",
        "en"
      ],
      [
        "p",
        "it"
      ],
      [
        "s",
        "end"
      ],
      [
        "s",
        "cre"
      ],
      [
        "s",
        "ket"
      ],
      [
        "s",
        "ides"
      ],
      [
        "u",
        "g"
      ],
      [
        "v",
        "ast"
      ],
      [
        "th",
        "ird"
      ],
      [
        "re",
        "e"
      ],
      [
        "on",
        "y"
      ],
      [
        "as",
        "leep"
      ],
      [
        "ar",
        "ri"
      ],
      [
        "ha",
        "bit"
      ],
      [
        "le",
        "ather"
      ],
      [
        "we",
        "ek"
      ],
      [
        "ut",
        "ion"
      ],
      [
        "mo",
        "tion"
      ],
      [
        "one",
        "ly"
      ],
      [
        "de",
        "p"
      ],
      [
        "um",
        "bling"
      ],
      [
        "if",
        "f"
      ],
      [
        "ex",
        "tra"
      ],
      [
        "fi",
        "ed"
      ],
      [
        "br",
        "ush"
      ],
      [
        "sp",
        "ent"
      ],
      [
        "your",
        "self"
      ],
      [
        "man",
        "aged"
      ],
      [
        "than",
        "k"
      ],
      [
        "light",
        "s"
      ],
      [
        "ak",
        "es"
      ],
      [
        "per",
        "fect"
      ],
      [
        "spe",
        "c"
      ],
      [
        "hun",
        "gry"
      ],
      [
        "Mountain",
        "s"
      ],
      [
        "sing",
        "ing"
      ],
      [
        "tal",
        "es"
      ],
      [
        "fall",
        "ing"
      ],
      [
        "sur",
        "pris"
      ],
      [
        "wr",
        "ong"
      ],
      [
        "hundred",
        "s"
      ],
      [
        "inter",
        "rup"
      ],
      [
        "draw",
        "n"
      ],
      [
        "show",
        "ed"
      ],
      [
        "char",
        "acter"
      ],
      [
        "hour",
        "s"
      ],
      [
        "ris",
        "ing"
      ],
      [
        "Ameri",
        "can"
      ],
      [
        "num",
        "ber"
      ],
      [
        "add",
        "ed"
      ],
      [
        "exc",
        "ite"
      ],
      [
        "aze",
        "ment"
      ],
      [
        "fif",
        "ty"
      ],
      [
        "entr",
        "ance"
      ],
      [
        "Eag",
        "les"
      ],
      [
        "crow",
        "d"
      ],
      [
        "Bof",
        "ur"
      ],
      [
        "Dw",
        "alin"
      ],
      [
        "D",
        "id"
      ],
      [
        "G",
        "e"
      ],
      [
        "O",
        "r"
      ],
      [
        "S",
        "he"
      ],
      [
        "c",
        "al"
      ],
      [
        "d",
        "ur"
      ],
      [
        "d",
        "aw"
      ],
      [
        "d",
        "ared"
      ],
      [
        "e",
        "ast"
      ],
      [
        "f",
        "a"
      ],
      [
        "f",
        "ted"
      ],
      [
        "g",
        "low"
      ],
      [
        "i",
        "e"
      ],
      [
        "k",
        "es"
      ],
      [
        "k",
        "no"
      ],
      [
        "l",
        "ist"
      ],
      [
        "p",
        "h"
      ],
      [
        "r",
        "age"
      ],
      [
        "s",
        "ang"
      ],
      [
        "t",
        "ang"
      ],
      [
        "ll",
        "y"
      ],
      [
        "st",
        "ro"
      ],
      [
        "st",
        "uff"
      ],
      [
        "we",
        "ar"
      ],
      [
        "we",
        "alth"
      ],
      [
        "wi",
        "cked"
      ],
      [
        "li",
        "ves"
      ],
      [
        "ad",
        "v"
      ],
      [
        "un",
        "comfortable"
      ],
      [
        "ri",
        "es"
      ],
      [
        "ri",
        "ch"
      ],
      [
        "ent",
        "ly"
      ],
      [
        "am",
        "azement"
      ],
      [
        "pl",
        "at"
      ],
      [
        "ind",
        "ic"
      ],
      [
        "any",
        "one"
      ],
      [
        "ap",
        "ping"
      ],
      [
        "by",
        "e"
      ],
      [
        "su",
        "c"
      ],
      [
        "com",
        "rad"
      ],
      [
        "af",
        "raid"
      ],
      [
        "dis",
        "appeared"
      ],
      [
        "thr",
        "ow"
      ],
      [
        "cl",
        "am"
      ],
      [
        "med",
        "i"
      ],
      [
        "In",
        "deed"
      ],
      [
        "fl",
        "at"
      ],
      [
        "thought",
        "s"
      ],
      [
        "say",
        "ing"
      ],
      [
        "agg",
        "ed"
      ],
      [
        "sur",
        "prise"
      ],
      [
        "pon",
        "y"
      ],
      [
        "sc",
        "attered"
      ],
      [
        "spo",
        "t"
      ],
      [
        "enti",
        "rely"
      ],
      [
        "comfor",
        "t"
      ],
      [
        "lau",
        "ghter"
      ],
      [
        "van",
        "ished"
      ],
      [
        "animal",
        "s"
      ],
      [
        "nat",
        "ur"
      ],
      [
        "pick",
        "ed"
      ],
      [
        "experi",
        "ence"
      ],
      [
        "War",
        "gs"
      ],
      [
        "comple",
        "te"
      ],
      [
        "streng",
        "th"
      ],
      [
        "Ge",
        "orge"
      ],
      [
        "comrad",
        "es"
      ],
      [
        "A",
        "ny"
      ],
      [
        "B",
        "if"
      ],
      [
        "C",
        "hapter"
      ],
      [
        "E",
        "very"
      ],
      [
        "L",
        "ong"
      ],
      [
        "M",
        "is"
      ],
      [
        "O",
        "in"
      ],
      [
        "S",
        "ure"
      ],
      [
        "U",
        "n"
      ],
      [
        "W",
        "ald"
      ],
      [
        "Y",
        "et"
      ],
      [
        "b",
        "at"
      ],
      [
        "e",
        "re"
      ],
      [
        "f",
        "it"
      ],
      [
        "i",
        "an"
      ],
      [
        "m",
        "ess"
      ],
      [
        "n",
        "ice"
      ],
      [
        "s",
        "um"
      ],
      [
        "w",
        "ound"
      ],
      [
        "re",
        "spect"
      ],
      [
        "at",
        "ten"
      ],
      [
        "to",
        "es"
      ],
      [
        "to",
        "graph"
      ],
      [
        "we",
        "ap"
      ],
      [
        "hi",
        "lls"
      ],
      [
        "ve",
        "get"
      ],
      [
        "no",
        "se"
      ],
      [
        "all",
        "ow"
      ],
      [
        "so",
        "le"
      ],
      [
        "sa",
        "ur"
      ],
      [
        "not",
        "e"
      ],
      [
        "co",
        "at"
      ],
      [
        "co",
        "lo"
      ],
      [
        "ne",
[...]
